/**
******************************************************************************
* @file    facemaskdetectionstm32f407tflite_data.c
* @author  AST Embedded Analytics Research Platform
* @date    Thu Mar 25 22:15:47 2021
* @brief   AI Tool Automatic Code Generator for Embedded NN computing
******************************************************************************
* @attention
*
* Copyright (c) 2021 STMicroelectronics.
* All rights reserved.
*
* This software component is licensed by ST under Ultimate Liberty license
* SLA0044, the "License"; You may not use this file except in compliance with
* the License. You may obtain a copy of the License at:
*                             www.st.com/SLA0044
*
******************************************************************************
*/

#include "facemaskdetectionstm32f407tflite_data.h"

ai_handle ai_facemaskdetectionstm32f407tflite_data_weights_get(void)
{
  AI_ALIGNED(32)
  static const ai_u8 s_facemaskdetectionstm32f407tflite_weights[33368] = {
    0x62, 0x94, 0xc4, 0xbc, 0x1c, 0x7a, 0xea, 0xbd, 0xb4, 0x8c,
    0x98, 0xbc, 0x3d, 0x02, 0xf0, 0xba, 0x6a, 0x80, 0xd6, 0x3d,
    0xf1, 0x44, 0xa8, 0xbd, 0x9a, 0xfa, 0xa5, 0xbd, 0x0a, 0x3d,
    0x19, 0xba, 0x35, 0x8b, 0x0c, 0x3e, 0xe9, 0xe6, 0xcb, 0x3d,
    0x84, 0x85, 0x7d, 0xbd, 0x3f, 0x99, 0x14, 0xbd, 0x01, 0x22,
    0x5f, 0xbd, 0xb7, 0xb0, 0xd8, 0x3d, 0x53, 0xe1, 0x93, 0x3d,
    0xe5, 0xf0, 0x86, 0xbc, 0xfe, 0x98, 0x94, 0x3d, 0x7a, 0x5d,
    0x82, 0x3d, 0x91, 0xac, 0x1e, 0x3e, 0xa1, 0x8b, 0xf5, 0x3d,
    0x57, 0x17, 0xc3, 0xbd, 0xc5, 0x6c, 0x37, 0x3e, 0xab, 0x2d,
    0x04, 0xbd, 0x3c, 0xb1, 0xc8, 0x3c, 0xc9, 0xaa, 0x45, 0x3e,
    0xfb, 0xdb, 0x5f, 0xbd, 0xba, 0x29, 0xa5, 0xbc, 0x22, 0x28,
    0xa7, 0x3d, 0x47, 0xf6, 0xcb, 0xbd, 0x47, 0x34, 0xc3, 0x3d,
    0xe5, 0x14, 0x5e, 0xbd, 0xe1, 0x0f, 0x20, 0xbd, 0xaf, 0xc4,
    0x06, 0x3d, 0x93, 0x75, 0xf8, 0x3b, 0xf4, 0x8a, 0x0d, 0x3d,
    0x29, 0xe0, 0x38, 0x3d, 0x95, 0xa0, 0xc1, 0x3d, 0x75, 0x97,
    0xcf, 0x3d, 0xe8, 0x26, 0x06, 0xbd, 0x2b, 0x1e, 0x8f, 0xbd,
    0x30, 0x27, 0xaa, 0x3d, 0x7d, 0x0a, 0x05, 0x3e, 0x6f, 0xc5,
    0x1e, 0x3d, 0x97, 0xa9, 0x7e, 0x3d, 0x37, 0x71, 0xd5, 0xbc,
    0x0c, 0xed, 0x93, 0xbd, 0xcc, 0x23, 0xb6, 0xbd, 0x22, 0xf8,
    0x66, 0xbc, 0x48, 0xc3, 0xc4, 0xba, 0xbe, 0x39, 0x6d, 0xbd,
    0x19, 0xa1, 0xe0, 0xbd, 0xac, 0xc4, 0x57, 0xbd, 0xd9, 0x71,
    0x7c, 0xbc, 0x0e, 0xb7, 0x6e, 0x3c, 0x92, 0xa2, 0x08, 0x3e,
    0x0f, 0xa4, 0xa3, 0xbd, 0x45, 0x1e, 0x20, 0x3d, 0xb3, 0x47,
    0x04, 0x3e, 0x18, 0xb6, 0x02, 0x3d, 0xf0, 0x40, 0xaf, 0x39,
    0xeb, 0x1f, 0x37, 0xbe, 0x18, 0x64, 0xf6, 0x3a, 0xa6, 0xf6,
    0x2c, 0xbe, 0xef, 0x3f, 0x23, 0xbe, 0xb3, 0x8d, 0xa2, 0xbd,
    0xe5, 0xeb, 0x24, 0xbe, 0x08, 0x5e, 0x48, 0xbe, 0x7f, 0x0c,
    0xee, 0xbb, 0xb0, 0x46, 0x50, 0xbd, 0x42, 0xfd, 0xa8, 0xbd,
    0x50, 0xe0, 0x7c, 0x3d, 0xea, 0x53, 0xaf, 0xbc, 0xbf, 0x14,
    0xaf, 0x3d, 0x61, 0x45, 0x7a, 0x3c, 0x13, 0xe0, 0x13, 0xbe,
    0x9e, 0xaf, 0xf8, 0x3d, 0xa8, 0xa1, 0x41, 0x3d, 0x02, 0x34,
    0x10, 0xbd, 0xd7, 0x3c, 0x00, 0x3c, 0xe2, 0xe4, 0x1f, 0xbe,
    0x24, 0xca, 0xe3, 0xbd, 0x4d, 0xf6, 0xe2, 0x3d, 0xce, 0x47,
    0xc4, 0x3d, 0x72, 0x9d, 0x28, 0xbe, 0x3a, 0xde, 0x48, 0xbd,
    0x5e, 0x36, 0xe8, 0x3a, 0x34, 0xe2, 0x0e, 0x3d, 0xd6, 0x70,
    0xab, 0xbd, 0xd5, 0x47, 0x49, 0x3d, 0x7b, 0x4f, 0x48, 0xbc,
    0xab, 0xc7, 0x09, 0xbd, 0x22, 0xc0, 0x47, 0x3c, 0xbd, 0x82,
    0xf4, 0xbd, 0x9c, 0x8c, 0x84, 0x3d, 0x45, 0xba, 0x06, 0x3d,
    0xbf, 0x2f, 0x0d, 0x3e, 0x5e, 0x03, 0x59, 0xbd, 0xab, 0xf8,
    0x8b, 0x3d, 0x79, 0xc0, 0x2e, 0x3c, 0x75, 0x4c, 0xba, 0xbd,
    0xe4, 0xb5, 0x17, 0xbd, 0x76, 0xec, 0xd6, 0xbd, 0x51, 0x97,
    0x53, 0xbd, 0xd3, 0x9f, 0x3c, 0x3d, 0x6d, 0xfe, 0xeb, 0x3d,
    0x2c, 0x16, 0x33, 0xbd, 0x84, 0x9a, 0x3b, 0x3d, 0x4c, 0xd6,
    0xc4, 0xbd, 0x9a, 0x33, 0xba, 0x3c, 0xbd, 0x72, 0x3e, 0x3e,
    0xae, 0xc5, 0xad, 0x3d, 0x23, 0x57, 0x27, 0xbe, 0x9e, 0xef,
    0x3f, 0x3c, 0x9b, 0x6f, 0xe7, 0xbd, 0xf0, 0xbf, 0x61, 0x3d,
    0x2a, 0x06, 0xbe, 0x3d, 0xea, 0xb7, 0x1c, 0xbe, 0x5d, 0xdf,
    0x47, 0xbd, 0x90, 0x92, 0x66, 0xbc, 0x19, 0xac, 0xd0, 0x3c,
    0x41, 0x62, 0xcf, 0xbd, 0xc6, 0xba, 0xb0, 0xbd, 0x03, 0xf4,
    0x41, 0xbd, 0x22, 0x87, 0x0d, 0xbd, 0x82, 0x2a, 0x55, 0x3e,
    0x2c, 0x80, 0x91, 0x3d, 0x26, 0xc3, 0xe7, 0xbc, 0x13, 0x57,
    0x09, 0xbd, 0x03, 0x89, 0x30, 0xbc, 0x93, 0x83, 0x2d, 0x3d,
    0xa6, 0xaf, 0x99, 0xbd, 0xce, 0xf3, 0x09, 0xbd, 0xaa, 0x80,
    0xe2, 0x3d, 0xde, 0xcd, 0x11, 0x3e, 0x75, 0xcf, 0x8f, 0xbd,
    0xb0, 0xe4, 0x0d, 0xbe, 0xec, 0x44, 0x09, 0x3e, 0xcb, 0x19,
    0x37, 0xbd, 0xa4, 0x6d, 0x00, 0x3e, 0x45, 0x22, 0x02, 0x3e,
    0x1c, 0x02, 0xb0, 0x3d, 0x03, 0x48, 0xe8, 0xbd, 0x98, 0x87,
    0xa0, 0xbd, 0x5a, 0x04, 0x2a, 0xbe, 0x1a, 0x9f, 0x00, 0xbe,
    0x17, 0xb6, 0xd8, 0x3d, 0x84, 0x25, 0xbf, 0x3d, 0x43, 0xc9,
    0x08, 0x3c, 0x13, 0x06, 0x92, 0xbd, 0xbd, 0xa1, 0x7f, 0xbd,
    0x9c, 0x94, 0x8d, 0x3c, 0x40, 0x32, 0x04, 0xbe, 0xce, 0xd4,
    0x37, 0xbc, 0xb7, 0xcc, 0x9a, 0x3d, 0x2a, 0x09, 0xc8, 0xbd,
    0xf4, 0x33, 0xa8, 0x3d, 0x9a, 0x26, 0x2e, 0x3e, 0x82, 0x2d,
    0x82, 0xbd, 0xb4, 0xfd, 0xd3, 0xba, 0x77, 0xc3, 0x98, 0x3c,
    0x32, 0xdd, 0x1e, 0xbe, 0x2a, 0x1b, 0x97, 0xbd, 0xf3, 0x6b,
    0xc9, 0x3d, 0xe3, 0xa0, 0xdd, 0xbc, 0xd4, 0xae, 0xcf, 0x3b,
    0x6f, 0x7d, 0x18, 0x3e, 0xef, 0x3b, 0x70, 0x3c, 0x07, 0x8e,
    0xbf, 0x3d, 0xcd, 0x29, 0xba, 0xbd, 0x8f, 0x12, 0x22, 0xbe,
    0xcc, 0x1d, 0x0a, 0x3d, 0x8a, 0xd9, 0x6b, 0x3d, 0x78, 0x37,
    0x18, 0x3d, 0x8b, 0x62, 0x85, 0x3d, 0xb8, 0x4e, 0xcc, 0x3d,
    0xa9, 0x84, 0x26, 0xbe, 0xd7, 0x12, 0x08, 0x3e, 0xb1, 0x22,
    0xa6, 0xbd, 0xdd, 0x6d, 0xd8, 0xbd, 0x41, 0xfa, 0x26, 0x3e,
    0x74, 0x31, 0xab, 0xbc, 0xfa, 0xa8, 0x6e, 0xbd, 0xb9, 0xe6,
    0x03, 0xbd, 0x77, 0xb8, 0xa3, 0x3d, 0x10, 0x6c, 0x1e, 0xbe,
    0xfc, 0x18, 0x21, 0x3e, 0x81, 0xbb, 0x5f, 0xbd, 0x39, 0x6d,
    0x52, 0xbe, 0x93, 0xed, 0xc5, 0x3d, 0xc0, 0x2d, 0x05, 0x3e,
    0x26, 0xc4, 0xfb, 0xbd, 0xdc, 0xc7, 0x21, 0x3e, 0x84, 0xb5,
    0xaf, 0x3c, 0x14, 0x56, 0x2b, 0xbe, 0x35, 0x9a, 0xe6, 0x3d,
    0x62, 0xaa, 0x83, 0x3d, 0xbf, 0x38, 0x2e, 0x3c, 0x96, 0xa3,
    0xdf, 0x3d, 0x4c, 0xf5, 0xbc, 0x3c, 0xb2, 0x74, 0xae, 0xbc,
    0x7c, 0x5a, 0x64, 0x3c, 0xca, 0x5e, 0x62, 0x3d, 0x56, 0x3d,
    0x6e, 0xbd, 0x0e, 0xb4, 0xe0, 0x3d, 0x65, 0x15, 0x05, 0x3e,
    0xa9, 0x17, 0x0d, 0xbe, 0xc0, 0x91, 0x50, 0x3e, 0xe2, 0x80,
    0xd8, 0xbd, 0x20, 0xa5, 0x4a, 0xbd, 0xa5, 0x92, 0x8c, 0x3d,
    0x90, 0x87, 0x4d, 0xbb, 0x93, 0xbb, 0x10, 0xbe, 0xea, 0x10,
    0x07, 0xbd, 0xc7, 0x1c, 0x2a, 0x3e, 0x41, 0x7a, 0x46, 0xbe,
    0x9b, 0x1a, 0x36, 0x3e, 0x88, 0x00, 0x95, 0xbd, 0x85, 0x96,
    0xbf, 0xbc, 0x90, 0x17, 0x56, 0xbd, 0xb0, 0x96, 0x6c, 0x3d,
    0x81, 0x6a, 0xaf, 0xbd, 0xa0, 0x1d, 0x16, 0x3e, 0x13, 0xfc,
    0xc6, 0xbd, 0x7c, 0xf7, 0xb6, 0xbc, 0x8b, 0x7b, 0x8e, 0x3d,
    0x2c, 0xe5, 0x8b, 0xbd, 0x94, 0x81, 0x1a, 0x3e, 0x84, 0xc6,
    0xf7, 0xbc, 0x76, 0x8e, 0xf4, 0x3d, 0x90, 0x06, 0xbb, 0x3d,
    0xff, 0x5b, 0x1b, 0xbe, 0x4f, 0x41, 0xd4, 0xbd, 0x38, 0xa8,
    0xce, 0xbc, 0x6c, 0xef, 0x48, 0x3d, 0x38, 0x83, 0xdc, 0xbb,
    0x9e, 0x6c, 0x77, 0x3d, 0x09, 0xf2, 0xd1, 0xbd, 0x81, 0x1d,
    0x80, 0x3d, 0x23, 0xf0, 0x4a, 0x3d, 0xba, 0xdf, 0xe6, 0xbd,
    0x02, 0x59, 0x6d, 0xbd, 0xbc, 0x08, 0x33, 0x3d, 0xb5, 0x66,
    0x0e, 0xbe, 0xde, 0x36, 0xbf, 0x3c, 0x33, 0xd2, 0x12, 0xbd,
    0xcf, 0xc3, 0x28, 0x3d, 0x1c, 0x8d, 0xd8, 0x3c, 0x00, 0x60,
    0x42, 0xbd, 0xb2, 0x33, 0x25, 0xbc, 0xfd, 0xf0, 0x05, 0xbe,
    0x12, 0xa2, 0x9d, 0xbd, 0xbe, 0x09, 0xe7, 0x3d, 0xec, 0x82,
    0x98, 0x3c, 0x8b, 0xeb, 0xb0, 0x3d, 0x51, 0xb9, 0x92, 0x3d,
    0xc6, 0x0f, 0xb6, 0x3d, 0x7a, 0x73, 0x01, 0x3d, 0x06, 0x93,
    0x52, 0x3d, 0x51, 0xab, 0xfa, 0x3c, 0x72, 0x31, 0xcf, 0x3d,
    0xba, 0x04, 0x5d, 0xbd, 0x2c, 0x15, 0x94, 0xbd, 0xb0, 0x6f,
    0x0f, 0x3e, 0xc2, 0xff, 0xbc, 0x3c, 0x35, 0x27, 0x1a, 0x3d,
    0xfd, 0xed, 0x12, 0x3e, 0x34, 0xfa, 0x85, 0xbd, 0xf6, 0x27,
    0x22, 0xbe, 0xfa, 0x44, 0xda, 0xbd, 0x4c, 0x1c, 0xda, 0x3d,
    0x8f, 0xa5, 0x92, 0xbd, 0xd4, 0xd0, 0xc8, 0x3d, 0xd6, 0x26,
    0x33, 0xbe, 0x6e, 0x92, 0xcc, 0x3c, 0xec, 0x63, 0x3f, 0x3e,
    0x84, 0x0e, 0x0c, 0xbe, 0xe4, 0xa5, 0x7e, 0xbd, 0x75, 0xfe,
    0xb1, 0xbd, 0xf1, 0x2d, 0x48, 0xbd, 0xb3, 0x55, 0x16, 0xbe,
    0xc2, 0xb3, 0xa7, 0x3c, 0xdb, 0x02, 0xfd, 0xbd, 0xc4, 0xf0,
    0xb6, 0x3c, 0x10, 0xb8, 0x4e, 0x3e, 0x76, 0xf9, 0x99, 0x3d,
    0x8a, 0x2a, 0xae, 0xbd, 0x62, 0x49, 0x14, 0x3e, 0x8b, 0x61,
    0x0c, 0xbc, 0x0d, 0x99, 0x04, 0x3c, 0xcc, 0xc1, 0xd3, 0x3b,
    0x3e, 0xcc, 0x7d, 0xbd, 0x41, 0x29, 0x8f, 0x3d, 0x64, 0x8d,
    0x91, 0x3d, 0x46, 0x2b, 0xb6, 0x3d, 0xfc, 0x56, 0x8d, 0x3c,
    0xfa, 0xae, 0x27, 0xbd, 0x68, 0x00, 0x3d, 0xbe, 0x32, 0x35,
    0xa7, 0x3d, 0x25, 0x74, 0x72, 0x3d, 0xae, 0x16, 0x85, 0xbd,
    0xe3, 0x8a, 0xb8, 0x3c, 0xed, 0xdf, 0x97, 0x3d, 0xd1, 0x27,
    0xe0, 0x3d, 0xb2, 0x4b, 0x92, 0xbd, 0x93, 0xfb, 0x62, 0xbc,
    0xe4, 0x18, 0xbf, 0xbd, 0xb7, 0x19, 0x4b, 0x3d, 0xcc, 0xfa,
    0xe8, 0xbd, 0xb1, 0xa2, 0x8e, 0xbc, 0x84, 0x8d, 0x12, 0x3d,
    0x38, 0xc2, 0xa6, 0xbd, 0x7e, 0xf4, 0x2a, 0x3c, 0xba, 0x7b,
    0xb6, 0x3d, 0xba, 0x93, 0x1a, 0x3d, 0x07, 0xaf, 0x0e, 0xbe,
    0xd7, 0x36, 0xb9, 0x3d, 0xb2, 0xd3, 0x12, 0xbe, 0x82, 0xd0,
    0x2d, 0xbc, 0xe7, 0x5c, 0x0d, 0xbd, 0x0a, 0xbe, 0x80, 0xbd,
    0xa9, 0xe2, 0x19, 0xbd, 0x26, 0xcf, 0x83, 0xbd, 0xa0, 0xb0,
    0x44, 0x3d, 0xa4, 0xa7, 0xb1, 0x3d, 0x48, 0xee, 0xbd, 0x3d,
    0x02, 0x66, 0x35, 0xbe, 0x30, 0x5c, 0xd5, 0x3d, 0xa5, 0x74,
    0xb3, 0x3d, 0x83, 0x15, 0xc2, 0xbd, 0x89, 0x41, 0x1e, 0x3d,
    0xce, 0xd1, 0x12, 0x3d, 0x33, 0xba, 0xd9, 0x3c, 0x0e, 0x31,
    0x6e, 0xbd, 0xfb, 0x9c, 0xdc, 0x3d, 0x7f, 0xbc, 0xbc, 0xbd,
    0x4e, 0xb9, 0x2b, 0x3d, 0x2d, 0x79, 0x27, 0xbd, 0xfd, 0x87,
    0x97, 0xbd, 0xd9, 0xd2, 0xec, 0x3d, 0x2a, 0xdf, 0xc3, 0xbc,
    0x41, 0xa6, 0x0f, 0xbd, 0xce, 0x99, 0x6a, 0xbb, 0xbd, 0xc9,
    0x28, 0xbd, 0xb5, 0xf4, 0x9e, 0x3c, 0xf5, 0xb2, 0x4b, 0x3d,
    0x39, 0x15, 0x61, 0xbd, 0xef, 0x01, 0xbc, 0xbd, 0x43, 0x20,
    0xe4, 0x3d, 0x4e, 0x95, 0x30, 0x3e, 0x7f, 0xc2, 0x01, 0xbe,
    0xe9, 0x83, 0x5a, 0xbd, 0xba, 0x31, 0xb5, 0x3d, 0xe6, 0xf0,
    0xff, 0xbd, 0x05, 0xe6, 0xb2, 0x3d, 0xad, 0xeb, 0x36, 0x3d,
    0x70, 0x37, 0x83, 0x3c, 0xc7, 0x56, 0x99, 0x3b, 0x7a, 0xa4,
    0x97, 0xbd, 0x09, 0x2d, 0xdc, 0xbd, 0xd3, 0x63, 0x4b, 0x3d,
    0xea, 0xc5, 0x9f, 0xbd, 0x60, 0xe6, 0x27, 0xbd, 0x23, 0xd9,
    0xe9, 0x3b, 0x83, 0x9b, 0x3e, 0x3e, 0x2c, 0x6a, 0x4f, 0x3d,
    0x55, 0x68, 0x11, 0xbe, 0xfa, 0x46, 0x98, 0x3d, 0x93, 0xf0,
    0xf3, 0xbd, 0xd4, 0xfb, 0xd5, 0x3c, 0x4a, 0x80, 0x2e, 0x3e,
    0x6f, 0x3d, 0xfb, 0xbd, 0x5f, 0x6b, 0x6c, 0xbd, 0xec, 0xe6,
    0xf1, 0x3d, 0x82, 0xbd, 0xb5, 0xbd, 0x85, 0xdb, 0x80, 0xbd,
    0x28, 0xf2, 0xc4, 0x3d, 0x12, 0xc5, 0xe3, 0x3d, 0x23, 0x7c,
    0xd4, 0xbd, 0x7c, 0x18, 0x3e, 0x3c, 0x54, 0xd3, 0x25, 0xbd,
    0x8a, 0x5c, 0xcd, 0xbd, 0xf1, 0x59, 0xf2, 0x3c, 0x49, 0x03,
    0x73, 0xbd, 0x59, 0xe4, 0x48, 0xbe, 0x7d, 0x2a, 0xa0, 0x3d,
    0x8c, 0xc4, 0xa5, 0xbd, 0x3c, 0x33, 0xd3, 0xbc, 0x05, 0x6e,
    0x07, 0x3e, 0x98, 0xdf, 0x07, 0xbe, 0xf9, 0x97, 0x5a, 0xbd,
    0xa0, 0x79, 0x06, 0x3e, 0x1c, 0x9c, 0xd8, 0xbd, 0x92, 0x74,
    0xad, 0x3d, 0xee, 0x99, 0x8f, 0x3c, 0x85, 0xf9, 0xc7, 0x3d,
    0x6e, 0x4a, 0xe5, 0x3d, 0x83, 0xb4, 0xc1, 0x3d, 0xa0, 0x11,
    0x49, 0x3d, 0x80, 0x09, 0xcc, 0x3d, 0xe7, 0x98, 0xd7, 0x3d,
    0x1f, 0x03, 0xd8, 0xbd, 0x65, 0x45, 0xf4, 0x3d, 0x73, 0xfb,
    0x79, 0xbd, 0x15, 0x4b, 0x07, 0x3d, 0x59, 0x6d, 0x30, 0x3d,
    0x00, 0xab, 0x1d, 0xbd, 0xf5, 0x7d, 0x72, 0xbc, 0x1b, 0x48,
    0x93, 0xbd, 0x57, 0xf7, 0x3a, 0xbe, 0xff, 0x96, 0x80, 0x3c,
    0xec, 0x61, 0x82, 0x3d, 0xcd, 0x45, 0xc7, 0xbd, 0x36, 0x4e,
    0x0d, 0x3e, 0xe4, 0x83, 0x9d, 0xbc, 0xb0, 0x9c, 0x75, 0x3d,
    0x1b, 0xfa, 0x1c, 0x3e, 0xc6, 0xda, 0x8d, 0xbd, 0xfa, 0x26,
    0xe2, 0xbc, 0x01, 0xd1, 0xc8, 0xbd, 0xec, 0x48, 0x24, 0xbe,
    0x16, 0xa5, 0xe5, 0x3a, 0x32, 0xe1, 0xd9, 0xbc, 0x68, 0x6d,
    0x78, 0x3d, 0x10, 0xde, 0x55, 0xbd, 0x79, 0x73, 0x79, 0xbd,
    0xe4, 0x23, 0x9b, 0x3d, 0x9a, 0x49, 0x87, 0x3d, 0x50, 0x0a,
    0xb7, 0x3b, 0x7c, 0x95, 0x5d, 0xbd, 0xd7, 0x43, 0xab, 0x3d,
    0x97, 0x58, 0xe2, 0x3d, 0xa5, 0x5d, 0x7e, 0xbd, 0x87, 0x62,
    0xd0, 0xbd, 0xc6, 0x87, 0x2e, 0xbd, 0xdd, 0x8c, 0xcf, 0x3d,
    0x81, 0xcb, 0x33, 0xbe, 0x90, 0xbd, 0x42, 0x3d, 0x4f, 0x5f,
    0x11, 0x3e, 0x78, 0x13, 0x63, 0xbc, 0xd7, 0x16, 0x80, 0xbd,
    0x74, 0x86, 0x29, 0x3e, 0x13, 0x8e, 0x31, 0xbe, 0x6f, 0x83,
    0x90, 0x3d, 0x36, 0x63, 0x1f, 0x3e, 0xf0, 0x1b, 0x7f, 0xbe,
    0x3f, 0xfc, 0x26, 0x3d, 0x5f, 0x70, 0x01, 0xbd, 0x36, 0xc4,
    0xdf, 0x3c, 0x26, 0x38, 0x1c, 0x3e, 0xe0, 0x97, 0x0b, 0x3e,
    0x80, 0x52, 0x56, 0xbc, 0x9f, 0x18, 0x2b, 0x3e, 0x25, 0x0b,
    0x1a, 0xbd, 0x2a, 0x96, 0xc7, 0xbd, 0xe3, 0x2e, 0xc6, 0xbd,
    0xf0, 0x58, 0x76, 0xbe, 0xc4, 0x36, 0x7f, 0x3c, 0xeb, 0x99,
    0xc1, 0x3d, 0x98, 0xc7, 0xd1, 0x3d, 0x1e, 0x71, 0x0f, 0x3e,
    0x98, 0xf8, 0xab, 0xbd, 0xdf, 0x8a, 0xfb, 0xbd, 0xc1, 0x5c,
    0x19, 0x3e, 0x10, 0x66, 0xf1, 0x3d, 0x47, 0xce, 0x5d, 0x3d,
    0xe6, 0xd1, 0x7c, 0x3d, 0xc2, 0x04, 0xd4, 0xbc, 0x4a, 0x73,
    0x21, 0x3c, 0x70, 0xd6, 0xd0, 0x3d, 0xa8, 0x6b, 0x2b, 0x3e,
    0xeb, 0x55, 0x14, 0x3e, 0x7a, 0x4a, 0x16, 0xbd, 0x3e, 0xf6,
    0x8a, 0xbd, 0xc2, 0x06, 0x27, 0xbe, 0x4a, 0x89, 0x22, 0x3d,
    0x18, 0x73, 0xe2, 0xbd, 0xce, 0xb7, 0xca, 0xbb, 0xa8, 0x64,
    0xa4, 0xbc, 0xee, 0xcc, 0x0c, 0xbe, 0xc0, 0x20, 0x8b, 0xbd,
    0x22, 0x26, 0x0b, 0x3d, 0x4f, 0x01, 0x9b, 0x3d, 0x40, 0x25,
    0x07, 0xbe, 0x8c, 0xce, 0x07, 0x3d, 0x4e, 0xb9, 0xff, 0xbb,
    0x33, 0x23, 0xd2, 0x3d, 0x53, 0xf3, 0xb6, 0xbd, 0xb1, 0x09,
    0x2c, 0x3e, 0xd2, 0x8c, 0xff, 0xbc, 0x56, 0x7c, 0x52, 0xbe,
    0x87, 0xa5, 0xd8, 0xbd, 0xb4, 0xf0, 0xd1, 0xbd, 0x5e, 0xd4,
    0xe7, 0x3d, 0x5c, 0x5a, 0x51, 0x3e, 0xd7, 0xfc, 0x08, 0x3e,
    0xfa, 0x87, 0x1f, 0xbe, 0x29, 0x3f, 0x4e, 0xbd, 0xab, 0x7a,
    0x51, 0xbd, 0xae, 0xa0, 0x15, 0xbc, 0x13, 0xf4, 0x3d, 0x3c,
    0x3b, 0xfd, 0x19, 0x3e, 0x1d, 0xf2, 0x22, 0xbe, 0x87, 0xb4,
    0x07, 0x3c, 0xf7, 0x6e, 0x11, 0x3e, 0x38, 0xce, 0x3b, 0x3d,
    0xa1, 0xef, 0x2f, 0xbd, 0x63, 0x5d, 0xd1, 0x3d, 0x4b, 0x53,
    0x28, 0xbe, 0x60, 0x79, 0x69, 0x3d, 0xa1, 0x6e, 0xb5, 0x3d,
    0x66, 0xd9, 0xe0, 0xbd, 0xeb, 0x7c, 0x3a, 0xbd, 0x60, 0xd6,
    0x0d, 0x3e, 0x15, 0xd2, 0x18, 0xbe, 0x31, 0x3f, 0x0a, 0x3e,
    0x9f, 0x59, 0xaa, 0x3d, 0x96, 0xc3, 0xa8, 0xbc, 0x56, 0x7f,
    0x67, 0x3d, 0x63, 0x91, 0x05, 0xbe, 0xa6, 0x6c, 0xcc, 0xbd,
    0x04, 0xe4, 0xaa, 0x3d, 0xc6, 0x24, 0xab, 0x3d, 0x87, 0x48,
    0xf3, 0xbd, 0xca, 0xef, 0x54, 0xbd, 0x61, 0x2d, 0x03, 0xbd,
    0xf4, 0xc3, 0x2d, 0x3d, 0x59, 0x28, 0x9e, 0xbc, 0x5f, 0xce,
    0x47, 0x3c, 0x42, 0x1f, 0xa1, 0x3d, 0x68, 0xc4, 0xe8, 0x3d,
    0xb6, 0x2e, 0xf1, 0x3d, 0x8e, 0xd5, 0x8e, 0x3d, 0x52, 0xcf,
    0x5e, 0xbd, 0x7c, 0x2f, 0x13, 0x3e, 0xbd, 0x94, 0x63, 0xbe,
    0x17, 0xf7, 0x32, 0xbd, 0xb5, 0x2b, 0xc4, 0xbd, 0x1a, 0xae,
    0xe0, 0x3d, 0xdb, 0x85, 0x61, 0x3e, 0x81, 0x2e, 0x42, 0x3e,
    0xcb, 0xd7, 0x85, 0xbd, 0x46, 0x5d, 0xb1, 0x3d, 0xda, 0x04,
    0x31, 0x3d, 0xd7, 0x8b, 0x89, 0xbd, 0x86, 0xce, 0xe2, 0x3c,
    0xbe, 0xe0, 0xe9, 0xbd, 0xb5, 0x3a, 0x41, 0xbe, 0x54, 0x30,
    0xd8, 0xbc, 0x07, 0xbe, 0x1e, 0x3d, 0xf9, 0xb1, 0x42, 0xbe,
    0x81, 0x4b, 0x30, 0x3e, 0x1e, 0x0d, 0xb7, 0x3d, 0xb6, 0x24,
    0x32, 0xbe, 0xbb, 0x01, 0x12, 0x3e, 0x84, 0xc8, 0x39, 0x3d,
    0x6e, 0xc4, 0x2c, 0x3e, 0x89, 0x6d, 0x61, 0x3e, 0x7e, 0xd0,
    0xd4, 0x3d, 0x92, 0x53, 0x9c, 0x3d, 0xd6, 0x74, 0x31, 0x3d,
    0x38, 0xeb, 0x41, 0x3d, 0xbe, 0xea, 0x44, 0xbd, 0x30, 0x60,
    0x7d, 0xbd, 0x8d, 0xdb, 0x39, 0xbc, 0x43, 0x74, 0x63, 0xbd,
    0x58, 0x61, 0xb9, 0x3a, 0x5d, 0x4b, 0xf9, 0x3d, 0x30, 0x03,
    0xfe, 0xbd, 0xba, 0x3c, 0xdd, 0x3d, 0xda, 0xa9, 0xe7, 0x3d,
    0x39, 0x6b, 0x5d, 0xbd, 0x2e, 0x9c, 0x35, 0x3c, 0xa5, 0xa0,
    0xb3, 0xbd, 0x2f, 0x28, 0x0e, 0xbe, 0x93, 0xde, 0x76, 0x3d,
    0xb3, 0xa2, 0xb4, 0xbc, 0xb8, 0x0b, 0x9b, 0xbd, 0xc9, 0x77,
    0x0d, 0xbc, 0xc2, 0xac, 0x00, 0xbe, 0xcd, 0x4a, 0x0e, 0x3d,
    0x7a, 0xf1, 0x46, 0xbd, 0xfa, 0x52, 0x31, 0x3e, 0xb9, 0xc3,
    0x67, 0xbe, 0x71, 0xce, 0x5a, 0x3d, 0xf4, 0x7d, 0x9d, 0x3d,
    0x72, 0xa2, 0x00, 0xbe, 0x6e, 0x84, 0x84, 0xbd, 0x96, 0x5d,
    0x4e, 0x3d, 0xc3, 0xf2, 0xd2, 0xbc, 0x9b, 0x81, 0x1c, 0x3e,
    0x3b, 0x3d, 0xd7, 0x3d, 0x13, 0x35, 0x18, 0xbe, 0xcf, 0xd5,
    0x96, 0xbc, 0xc2, 0x6b, 0xfe, 0x3d, 0x78, 0xfd, 0x8e, 0xbc,
    0xb6, 0xe3, 0x48, 0xbd, 0x55, 0x52, 0x02, 0xbe, 0x89, 0x20,
    0x23, 0xbc, 0xec, 0xa2, 0xb2, 0x3d, 0xa3, 0xff, 0xef, 0xbd,
    0x58, 0x2d, 0xf7, 0xbd, 0x54, 0x76, 0x5d, 0xbd, 0xb0, 0x69,
    0x2c, 0xbd, 0xf2, 0x3e, 0x5f, 0xbd, 0xd5, 0x64, 0xb0, 0x3d,
    0x31, 0x9d, 0x13, 0x3d, 0xea, 0x6f, 0x2e, 0x3d, 0xb3, 0x38,
    0x15, 0x3c, 0xde, 0x35, 0x0d, 0xbe, 0xa7, 0xae, 0x98, 0x3c,
    0xfb, 0x3c, 0x8b, 0xbd, 0x84, 0x8f, 0xf0, 0x3d, 0x6b, 0x26,
    0xb3, 0x3c, 0xf5, 0x0f, 0x71, 0x3c, 0xd4, 0xb5, 0x32, 0xbe,
    0x10, 0x10, 0x26, 0x3d, 0x1b, 0x9b, 0xda, 0x3d, 0x25, 0x9a,
    0x67, 0xbc, 0xf2, 0xc7, 0xcd, 0x3d, 0xf2, 0xd7, 0x3b, 0xbd,
    0xb4, 0x39, 0xb4, 0x3d, 0x9c, 0x03, 0x20, 0xbe, 0xf8, 0x10,
    0x04, 0xbd, 0xf4, 0x49, 0xfd, 0xbd, 0xd5, 0xba, 0x9c, 0x3d,
    0x7e, 0xef, 0x48, 0x3d, 0x92, 0x21, 0x25, 0x3e, 0x71, 0x5b,
    0x81, 0xbc, 0xca, 0xff, 0x67, 0xb9, 0x50, 0x1c, 0x56, 0xbd,
    0xcf, 0x10, 0x03, 0xbe, 0x6a, 0xc3, 0xe9, 0x3c, 0x7f, 0xf1,
    0x46, 0x3d, 0xa6, 0x36, 0x52, 0x3c, 0x20, 0x22, 0x21, 0x3d,
    0x8f, 0xf2, 0x4d, 0x3d, 0x5c, 0x00, 0xb5, 0xbd, 0xb4, 0xfd,
    0xba, 0x3d, 0x10, 0xcb, 0x87, 0xbd, 0xda, 0x19, 0xa0, 0xbd,
    0x9c, 0xa4, 0xa2, 0xbd, 0xf3, 0x10, 0x1b, 0xbe, 0xa1, 0xcd,
    0xc6, 0x3d, 0x98, 0xdd, 0x68, 0x3d, 0xb7, 0xba, 0xe2, 0x3d,
    0xd7, 0xc6, 0xee, 0xbc, 0xfb, 0x3c, 0xa3, 0xbd, 0xd3, 0x44,
    0x16, 0xbe, 0xf4, 0xb9, 0x84, 0x3c, 0x5f, 0xd7, 0x64, 0xbd,
    0xe5, 0x04, 0x26, 0xbb, 0x5b, 0xf5, 0x35, 0x3d, 0xbd, 0xf7,
    0xab, 0x3d, 0xd2, 0x06, 0x6c, 0xbd, 0xe5, 0x3a, 0xc8, 0xbd,
    0x84, 0x2c, 0x91, 0x3d, 0x92, 0x32, 0x00, 0x3b, 0x44, 0x8e,
    0x19, 0xbe, 0xa4, 0xeb, 0x16, 0x3d, 0xb3, 0x6b, 0x23, 0x3b,
    0x46, 0x7d, 0xc0, 0x3b, 0x2b, 0xee, 0x2b, 0x3c, 0xb9, 0x64,
    0xd1, 0x3d, 0x16, 0x2c, 0x5e, 0xbe, 0xb5, 0xbc, 0x55, 0xbd,
    0x16, 0x67, 0x15, 0xbe, 0x03, 0xf3, 0x40, 0x3d, 0xa0, 0x21,
    0x43, 0x3d, 0xd3, 0xa4, 0x9a, 0x3d, 0x0a, 0x52, 0x5d, 0xbd,
    0x62, 0x56, 0xb9, 0xbd, 0x9a, 0x5a, 0xa6, 0x3d, 0x38, 0xdd,
    0x39, 0xbe, 0x59, 0x4e, 0xb0, 0xbd, 0x85, 0xfe, 0xc8, 0x3d,
    0xec, 0x8e, 0x25, 0xbe, 0x35, 0xf9, 0xaa, 0xbd, 0x6c, 0x08,
    0x1a, 0xbe, 0xd0, 0xdc, 0x5f, 0xbe, 0xd3, 0x7e, 0x1f, 0xbe,
    0x78, 0xc0, 0x5f, 0x3d, 0x0b, 0x32, 0xf8, 0xbd, 0x65, 0xe6,
    0x2f, 0xbe, 0x54, 0x5d, 0x13, 0xbe, 0x67, 0xc2, 0x25, 0x3b,
    0x2f, 0x61, 0x27, 0xbe, 0xe8, 0x64, 0xd5, 0xbd, 0xc7, 0x20,
    0x89, 0x3c, 0xa6, 0x2d, 0x29, 0xbd, 0x6e, 0x5c, 0x7b, 0xbd,
    0xc3, 0x55, 0x1b, 0xbe, 0xd7, 0x58, 0x48, 0x3c, 0x45, 0x9b,
    0x1f, 0xbc, 0x18, 0x51, 0x5e, 0xbd, 0x4f, 0x42, 0x18, 0xbd,
    0xee, 0xef, 0x9d, 0xbd, 0xa4, 0x99, 0x18, 0x3d, 0x2e, 0x31,
    0x3a, 0x3d, 0xa3, 0x4d, 0x76, 0xbd, 0xce, 0xec, 0x82, 0x3d,
    0x77, 0xc9, 0x8e, 0xbd, 0xba, 0x0d, 0x41, 0xbc, 0xb8, 0xcd,
    0xfe, 0x3d, 0xe0, 0x45, 0x27, 0x3c, 0xc6, 0xdb, 0x8f, 0xbd,
    0x73, 0x1d, 0x67, 0xbd, 0x15, 0xdc, 0x32, 0x3d, 0xe2, 0xda,
    0xf4, 0x3b, 0xdc, 0xba, 0xa6, 0x3c, 0x7a, 0xfd, 0xc5, 0xbd,
    0x7d, 0x40, 0x1b, 0xbd, 0xda, 0xe0, 0xcc, 0x3c, 0x67, 0x41,
    0x4f, 0xbd, 0x3a, 0x09, 0x52, 0x3d, 0x27, 0x2f, 0x50, 0xbd,
    0x80, 0x3e, 0xcf, 0x3c, 0x63, 0x53, 0xd9, 0x3d, 0x0b, 0xe3,
    0x35, 0x3d, 0xf6, 0x5a, 0x5a, 0x3d, 0x8c, 0xcf, 0xb9, 0x3d,
    0x9a, 0xeb, 0xaa, 0xbd, 0x51, 0x21, 0x76, 0x3d, 0x2a, 0x8c,
    0x66, 0xbd, 0x65, 0x7f, 0x89, 0x3d, 0x1a, 0x03, 0x21, 0x3c,
    0x47, 0x77, 0xda, 0x3c, 0xb6, 0x72, 0xe0, 0x3d, 0xc7, 0x40,
    0xc2, 0x3d, 0x8f, 0x23, 0x1b, 0xbd, 0x3a, 0xc0, 0x1a, 0x3e,
    0x42, 0xda, 0x06, 0xbd, 0xdc, 0x8f, 0x51, 0x3d, 0xa9, 0x83,
    0xb8, 0x3d, 0x47, 0x55, 0x4c, 0xbd, 0x80, 0x60, 0x26, 0x3e,
    0x10, 0xc2, 0x0d, 0x3e, 0x87, 0xb7, 0xa2, 0xbd, 0x82, 0xf9,
    0x3e, 0x3d, 0x86, 0x78, 0x2c, 0x3e, 0x70, 0x99, 0xab, 0xbd,
    0xac, 0xa5, 0x5f, 0x3c, 0xe3, 0x1d, 0x17, 0x3e, 0x2a, 0x34,
    0x3f, 0x3d, 0x31, 0xba, 0x59, 0x3b, 0xcc, 0xf6, 0x39, 0xbd,
    0x66, 0x2f, 0xd8, 0x3d, 0x94, 0x0e, 0x00, 0x3e, 0x94, 0x0f,
    0x2f, 0x3e, 0xdd, 0xc4, 0x2a, 0xbd, 0xb2, 0xeb, 0xaf, 0x3d,
    0x3f, 0xed, 0x82, 0xbd, 0xb9, 0xc9, 0x24, 0xbd, 0x68, 0xd4,
    0x5b, 0xbd, 0xf3, 0x98, 0x9f, 0xbd, 0xcd, 0x9d, 0xc2, 0xbd,
    0xa6, 0x2d, 0x07, 0xbc, 0xb2, 0x6a, 0x3d, 0x3d, 0x54, 0x3b,
    0x81, 0x3d, 0x2e, 0x17, 0xd8, 0xbc, 0x0e, 0xe0, 0x6a, 0xbc,
    0xa1, 0x96, 0x59, 0x3d, 0x22, 0xa1, 0xed, 0x3d, 0x32, 0xaf,
    0xc2, 0x3c, 0x10, 0x7e, 0xf0, 0xbc, 0x7a, 0x3b, 0xb7, 0x3d,
    0xc8, 0xf1, 0x7b, 0xbc, 0xd7, 0xff, 0xd0, 0xbd, 0xe9, 0x22,
    0xce, 0xbc, 0x10, 0x7e, 0xf0, 0xbd, 0x34, 0xc4, 0x6a, 0xbd,
    0xa1, 0x96, 0xd9, 0x3c, 0x22, 0xa1, 0xed, 0x3d, 0x32, 0xaf,
    0xc2, 0xbd, 0x58, 0x0a, 0xe5, 0x3c, 0xc5, 0xdc, 0xd3, 0x3d,
    0x32, 0xaf, 0xc2, 0xbd, 0x7a, 0x3b, 0xb7, 0x3c, 0xae, 0x8f,
    0x06, 0xbe, 0x7a, 0x3b, 0x37, 0xbd, 0x9c, 0x6c, 0x09, 0x3d,
    0x53, 0xe0, 0x94, 0x3c, 0x65, 0x03, 0x92, 0xbd, 0x7a, 0x3b,
    0x37, 0x3c, 0xe7, 0x0d, 0x26, 0xbd, 0x0b, 0x54, 0xa0, 0x3c,
    0x34, 0xc4, 0x6a, 0xbd, 0xc5, 0xdc, 0x53, 0xbd, 0x53, 0xe0,
    0x94, 0xbd, 0x7a, 0x3b, 0xb7, 0x3c, 0x00, 0x00, 0x00, 0x00,
    0xc0, 0xb2, 0x03, 0xbd, 0x1d, 0x77, 0x9d, 0xbd, 0x58, 0x0a,
    0xe5, 0x3b, 0x0d, 0x69, 0x48, 0xbd, 0x7a, 0x3b, 0xb7, 0xba,
    0xe7, 0x0d, 0xa6, 0xbd, 0x9c, 0x6c, 0x89, 0xbc, 0x41, 0xbd,
    0x17, 0xbe, 0x58, 0x0a, 0x65, 0x3c, 0x9e, 0x81, 0xb1, 0xbd,
    0x7a, 0x3b, 0xb7, 0x3a, 0x9c, 0x6c, 0x09, 0x3d, 0x22, 0xa1,
    0xed, 0xbd, 0x9e, 0x81, 0xb1, 0x3d, 0x8c, 0x5e, 0xb4, 0x3d,
    0x9c, 0x6c, 0x89, 0xbb, 0x00, 0x00, 0x00, 0x00, 0x9c, 0x6c,
    0x89, 0x3b, 0x89, 0x49, 0x8c, 0xbd, 0xc2, 0xc7, 0xab, 0xbc,
    0x8c, 0x5e, 0xb4, 0xbd, 0x32, 0xaf, 0xc2, 0xbc, 0x34, 0xc4,
    0x6a, 0x3d, 0x7a, 0x3b, 0x37, 0x3b, 0xe9, 0x22, 0x4e, 0xbc,
    0xfb, 0x45, 0xcb, 0x3d, 0xc8, 0xf1, 0xfb, 0x3c, 0xc8, 0xf1,
    0x7b, 0xbd, 0x7a, 0x3b, 0xb7, 0xbd, 0x7a, 0x3b, 0xb7, 0x3c,
    0x0b, 0x54, 0x20, 0xbc, 0x58, 0x0a, 0x65, 0x3d, 0xa1, 0x96,
    0xd9, 0x3c, 0x44, 0xd2, 0xbf, 0x3d, 0x9c, 0x6c, 0x09, 0x3d,
    0x7a, 0x3b, 0xb7, 0xbc, 0xe9, 0x22, 0x4e, 0xbc, 0x7a, 0x3b,
    0xb7, 0xbd, 0xb0, 0xa4, 0xae, 0xbd, 0x7a, 0x3b, 0x37, 0x3b,
    0xc2, 0xc7, 0xab, 0xbc, 0x2f, 0x9a, 0x1a, 0x3d, 0x2f, 0x9a,
    0x1a, 0x3d, 0x58, 0x0a, 0xe5, 0x3d, 0xe9, 0x22, 0xce, 0x3c,
    0x58, 0x0a, 0xe5, 0x3b, 0x9c, 0x6c, 0x89, 0x3b, 0x41, 0xbd,
    0x97, 0xbd, 0x77, 0x26, 0x8f, 0x3d, 0x0b, 0x54, 0x20, 0xbc,
    0x2f, 0x9a, 0x1a, 0xbd, 0x9c, 0x6c, 0x89, 0x3b, 0x9c, 0x6c,
    0x09, 0x3d, 0x9c, 0x6c, 0x89, 0xbb, 0x9e, 0x81, 0x31, 0xbd,
    0xc8, 0xf1, 0xfb, 0xbc, 0x0b, 0x54, 0xa0, 0xbc, 0x25, 0xfe,
    0x07, 0xbe, 0xf9, 0x30, 0xa3, 0xbd, 0xe7, 0x0d, 0xa6, 0xbd,
    0x2f, 0x9a, 0x1a, 0xbd, 0xe9, 0x22, 0x4e, 0x3d, 0x77, 0x26,
    0x0f, 0xbd, 0x2f, 0x9a, 0x9a, 0x3d, 0xd2, 0xd5, 0x80, 0x3d,
    0x65, 0x03, 0x92, 0x3d, 0x9c, 0x6c, 0x89, 0x3c, 0xf9, 0x30,
    0xa3, 0xbd, 0xc0, 0xb2, 0x83, 0x3d, 0x9c, 0x6c, 0x89, 0x3b,
    0x58, 0x0a, 0xe5, 0xbc, 0xe9, 0x22, 0xce, 0xbc, 0x9e, 0x81,
    0x31, 0xbd, 0x58, 0x0a, 0xe5, 0xbb, 0x32, 0xaf, 0xc2, 0x3c,
    0x58, 0x0a, 0x65, 0x3d, 0xc5, 0xdc, 0x53, 0xbd, 0x7a, 0x3b,
    0xb7, 0xbd, 0x53, 0xe0, 0x14, 0xbd, 0x00, 0x00, 0x00, 0x00,
    0x58, 0x0a, 0xe5, 0x3b, 0x9c, 0x6c, 0x09, 0x3d, 0xec, 0x37,
    0x76, 0xbd, 0x53, 0xe0, 0x94, 0x3c, 0x9e, 0x81, 0x31, 0x3d,
    0x10, 0x7e, 0xf0, 0x3c, 0x7a, 0x3b, 0xb7, 0x3a, 0x53, 0xe0,
    0x14, 0xbd, 0x58, 0x0a, 0x65, 0x3d, 0x2f, 0x9a, 0x1a, 0x3d,
    0x56, 0xf5, 0xbc, 0x3d, 0x7a, 0x3b, 0xb7, 0xba, 0x58, 0x0a,
    0xe5, 0xbb, 0x0b, 0x54, 0xa0, 0xbc, 0x2f, 0x9a, 0x1a, 0xbd,
    0xe9, 0x22, 0xce, 0x3c, 0xf9, 0x30, 0xa3, 0x3d, 0xc0, 0xb2,
    0x03, 0xbd, 0x7a, 0x3b, 0xb7, 0xbc, 0xec, 0x37, 0x76, 0x3d,
    0x77, 0x26, 0x0f, 0xbd, 0x58, 0x0a, 0xe5, 0xbb, 0x58, 0x0a,
    0x65, 0xbc, 0x7a, 0x3b, 0xb7, 0xbb, 0xae, 0x8f, 0x86, 0xbd,
    0x6b, 0x2d, 0xe2, 0x3d, 0x44, 0xd2, 0xbf, 0x3d, 0xe9, 0x22,
    0x4e, 0x3d, 0x7a, 0x3b, 0xb7, 0xbb, 0x34, 0xc4, 0xea, 0xbd,
    0x9c, 0x6c, 0x89, 0x3d, 0x20, 0x8c, 0xc5, 0x3d, 0xc8, 0xf1,
    0xfb, 0x3c, 0x00, 0xb8, 0x0d, 0x3e, 0x2f, 0x9a, 0x9a, 0x3d,
    0xe7, 0x0d, 0xa6, 0x3d, 0xee, 0x94, 0x10, 0x3e, 0x1d, 0x77,
    0x9d, 0x3d, 0x25, 0xfe, 0x07, 0x3e, 0x2f, 0x9a, 0x1a, 0x3d,
    0x0b, 0x54, 0x20, 0xbd, 0x9c, 0x6c, 0x09, 0x3c, 0x7a, 0x3b,
    0xb7, 0xbb, 0x0b, 0x54, 0x20, 0xbc, 0xa1, 0x96, 0xd9, 0x3c,
    0x8c, 0x5e, 0xb4, 0x3d, 0x0b, 0x54, 0x20, 0x3d, 0x34, 0xc4,
    0x6a, 0x3d, 0xe7, 0x0d, 0x26, 0xbd, 0xb0, 0xa4, 0xae, 0xbd,
    0x7a, 0x3b, 0xb7, 0x3d, 0x41, 0xbd, 0x97, 0x3d, 0x9c, 0x6c,
    0x09, 0x3d, 0x7a, 0x3b, 0x37, 0x3d, 0xe9, 0x22, 0x4e, 0xbd,
    0xe7, 0x0d, 0x26, 0x3d, 0xae, 0x8f, 0x86, 0x3d, 0x58, 0x0a,
    0xe5, 0x3c, 0x7a, 0x3b, 0x37, 0xbd, 0xc2, 0xc7, 0xab, 0x3c,
    0xc8, 0xf1, 0xfb, 0x3c, 0x0b, 0x54, 0x20, 0x3c, 0xf9, 0x30,
    0xa3, 0x3d, 0x7a, 0x3b, 0x37, 0xbb, 0x7d, 0x50, 0x5f, 0xbd,
    0xf9, 0x30, 0x23, 0x3e, 0x7a, 0x3b, 0x37, 0x3d, 0xe9, 0x22,
    0xce, 0x3c, 0x53, 0xe0, 0x94, 0x3c, 0xe9, 0x22, 0x4e, 0xbd,
    0x0b, 0x54, 0x20, 0x3c, 0xe7, 0x0d, 0x26, 0x3d, 0xb0, 0xa4,
    0xae, 0x3d, 0x7a, 0x3b, 0x37, 0xbc, 0xec, 0x37, 0x76, 0xbd,
    0x25, 0xfe, 0x07, 0x3e, 0x03, 0xcd, 0x35, 0x3e, 0x41, 0xbd,
    0x17, 0x3e, 0x34, 0xc4, 0xea, 0x3d, 0xc8, 0xf1, 0x7b, 0xbd,
    0xd4, 0xea, 0xa8, 0xbd, 0x1d, 0x77, 0x1d, 0x3e, 0xe9, 0x22,
    0xce, 0x3c, 0x8c, 0x5e, 0xb4, 0x3d, 0x68, 0x18, 0xba, 0xbd,
    0x89, 0x49, 0x0c, 0x3e, 0x0b, 0x54, 0x20, 0x3e, 0x65, 0x03,
    0x12, 0x3e, 0x7a, 0x3b, 0xb7, 0x3b, 0xe7, 0x0d, 0xa6, 0xbd,
    0x10, 0x7e, 0xf0, 0xbd, 0x53, 0xe0, 0x14, 0xbd, 0xd2, 0xd5,
    0x80, 0x3d, 0x7a, 0x3b, 0xb7, 0x3a, 0xe9, 0x22, 0x4e, 0xbd,
    0x7a, 0x3b, 0x37, 0xbc, 0x77, 0x26, 0x0f, 0xbd, 0x9e, 0x81,
    0x31, 0xbd, 0xc8, 0xf1, 0xfb, 0x3c, 0x7a, 0x3b, 0xb7, 0xbb,
    0x41, 0xbd, 0x97, 0xbd, 0x9c, 0x6c, 0x09, 0x3c, 0x0d, 0x69,
    0x48, 0xbd, 0x9c, 0x6c, 0x89, 0xbd, 0xc0, 0xb2, 0x03, 0xbd,
    0x0b, 0x54, 0x20, 0xbc, 0xf9, 0x30, 0xa3, 0x3d, 0x53, 0xe0,
    0x14, 0xbd, 0x7a, 0x3b, 0xb7, 0xbc, 0x20, 0x8c, 0xc5, 0xbd,
    0x49, 0x44, 0x02, 0xbe, 0x7a, 0x3b, 0x37, 0x3c, 0x53, 0xe0,
    0x14, 0xbd, 0x32, 0xaf, 0x42, 0xbd, 0xc8, 0xf1, 0x7b, 0xbc,
    0x32, 0xaf, 0xc2, 0x3c, 0xec, 0x37, 0x76, 0x3d, 0x0b, 0x54,
    0xa0, 0x3c, 0xd2, 0xd5, 0x80, 0xbd, 0xae, 0x8f, 0x86, 0xbd,
    0xd7, 0xff, 0xd0, 0xbd, 0x53, 0xe0, 0x94, 0xbc, 0x32, 0xaf,
    0x42, 0x3d, 0x9c, 0x6c, 0x09, 0x3c, 0x34, 0xc4, 0x6a, 0xbd,
    0x7a, 0x3b, 0xb7, 0xba, 0xc0, 0xb2, 0x83, 0x3d, 0x6b, 0x2d,
    0xe2, 0x3d, 0xd7, 0xff, 0xd0, 0x3d, 0x2f, 0x9a, 0x1a, 0xbe,
    0xec, 0x37, 0xf6, 0xbd, 0x58, 0x0a, 0xe5, 0x3d, 0x8f, 0x73,
    0xdc, 0x3d, 0x58, 0x0a, 0x65, 0xbc, 0xf9, 0x30, 0xa3, 0xbd,
    0x53, 0xe0, 0x94, 0x3c, 0x34, 0xc4, 0x6a, 0x3d, 0x44, 0xd2,
    0xbf, 0x3d, 0xae, 0x8f, 0x86, 0x3d, 0xfe, 0x5a, 0xf3, 0xbd,
    0x2c, 0x69, 0x3b, 0x3d, 0x9c, 0x56, 0x1a, 0xbc, 0xbb, 0x7b,
    0xdc, 0xbb, 0x2c, 0x69, 0x3b, 0x3d, 0x5c, 0x6f, 0xc6, 0x3c,
    0x9c, 0x56, 0x1a, 0x3c, 0xfc, 0x62, 0xb0, 0x3a, 0x03, 0xab,
    0x05, 0xbe, 0x3d, 0x4a, 0x84, 0x3c, 0xfc, 0x62, 0x30, 0xbb,
    0x03, 0x05, 0x6d, 0xbd, 0x9c, 0x56, 0x9a, 0x3c, 0x2c, 0x69,
    0xbb, 0xbd, 0x3d, 0x4a, 0x04, 0xbd, 0xfc, 0x62, 0x30, 0xbb,
    0x1a, 0x88, 0xf2, 0xbd, 0x8b, 0x75, 0xd1, 0xbc, 0xfc, 0x62,
    0x30, 0xbd, 0xe4, 0xdf, 0x2a, 0x3d, 0x3d, 0x4a, 0x84, 0xbb,
    0x11, 0x95, 0x97, 0x3d, 0x40, 0x9b, 0xa2, 0xbd, 0xeb, 0x27,
    0x00, 0xbe, 0x5c, 0x6f, 0xc6, 0xbd, 0xbb, 0x7b, 0x5c, 0xbc,
    0x1a, 0x88, 0xf2, 0xbd, 0x8b, 0x75, 0xd1, 0x3c, 0x3d, 0x4a,
    0x84, 0xbc, 0x2c, 0x69, 0xbb, 0x3c, 0xfc, 0x62, 0x30, 0xbd,
    0x14, 0xe6, 0x35, 0x3d, 0xfc, 0x62, 0xb0, 0x3a, 0x03, 0x05,
    0x6d, 0xbd, 0xeb, 0x81, 0x67, 0xbd, 0x1a, 0x88, 0x72, 0x3c,
    0xbf, 0x72, 0x13, 0xbe, 0x85, 0xd3, 0x94, 0xbd, 0xe1, 0x8e,
    0x8c, 0xbd, 0x2c, 0x69, 0x3b, 0x3d, 0x55, 0xcd, 0x89, 0xbd,
    0xd0, 0xad, 0xc3, 0x3d, 0xfc, 0x62, 0x30, 0xbb, 0x5c, 0x6f,
    0x46, 0xbc, 0x32, 0x0b, 0x78, 0xbd, 0x14, 0xe6, 0xb5, 0x3d,
    0xa3, 0xf8, 0xd6, 0xbd, 0xcc, 0x5c, 0xa5, 0x3c, 0xfc, 0x62,
    0x30, 0xbd, 0x3d, 0x4a, 0x84, 0x3d, 0xeb, 0x81, 0xe7, 0xbc,
    0xbb, 0x7b, 0xdc, 0x3c, 0x40, 0x9b, 0xa2, 0x3d, 0xfc, 0x62,
    0x30, 0x3b, 0x1a, 0x88, 0x72, 0x3d, 0x85, 0xd3, 0x14, 0x3d,
    0x9c, 0x56, 0x1a, 0x3c, 0x8b, 0x75, 0xd1, 0x3c, 0x1a, 0x88,
    0x72, 0xbd, 0xfc, 0x62, 0xb0, 0x3c, 0xa3, 0xf8, 0x56, 0xbd,
    0x1a, 0x88, 0xf2, 0xbc, 0x85, 0xd3, 0x14, 0x3d, 0x8b, 0x75,
    0xd1, 0xbd, 0x2c, 0x69, 0xbb, 0xbc, 0x55, 0xcd, 0x09, 0xbd,
    0x85, 0xd3, 0x14, 0xbd, 0x73, 0xf2, 0xcb, 0xbd, 0x1a, 0x88,
    0x72, 0xbd, 0x6d, 0x50, 0x0f, 0x3d, 0x9c, 0x56, 0x1a, 0xbc,
    0x85, 0xd3, 0x14, 0x3d, 0xeb, 0x81, 0x67, 0x3d, 0x8f, 0xc6,
    0xef, 0xbd, 0x4a, 0x8e, 0x7d, 0x3d, 0x4a, 0x8e, 0x7d, 0x3d,
    0x17, 0x37, 0xd4, 0xbd, 0x5c, 0x6f, 0x46, 0xbc, 0x1b, 0x2e,
    0x0b, 0xbe, 0xb4, 0xd9, 0x1f, 0x3d, 0x6d, 0x50, 0x8f, 0xbd,
    0x2c, 0x69, 0xbb, 0xbc, 0x3d, 0x4a, 0x84, 0x3c, 0xbb, 0x7b,
    0xdc, 0xbc, 0xbb, 0x7b, 0xdc, 0xbb, 0xfc, 0x62, 0x30, 0xbc,
    0xf9, 0x11, 0x92, 0x3d, 0xbb, 0x7b, 0x5c, 0xbc, 0x2c, 0x69,
    0xbb, 0xbc, 0x3d, 0x4a, 0x84, 0xbb, 0xd0, 0xad, 0xc3, 0xbd,
    0x55, 0xcd, 0x09, 0xbd, 0x85, 0xd3, 0x14, 0x3e, 0x85, 0xd3,
    0x14, 0xbd, 0xfc, 0x62, 0xb0, 0x3b, 0x73, 0xf2, 0x4b, 0xbd,
    0x5c, 0x6f, 0xc6, 0x3c, 0xd3, 0xfe, 0x61, 0xbd, 0x6d, 0x50,
    0x0f, 0xbd, 0x1a, 0x88, 0x72, 0x3c, 0x1a, 0x88, 0x72, 0xbd,
    0xfc, 0x62, 0x30, 0xbb, 0xfc, 0x62, 0x30, 0x3b, 0x14, 0xe6,
    0x35, 0xbd, 0x1a, 0x88, 0x72, 0xbc, 0xbb, 0x7b, 0xdc, 0xbb,
    0xbb, 0x7b, 0x5c, 0x3d, 0x6d, 0x50, 0x8f, 0xbc, 0xbb, 0x7b,
    0x5c, 0x3c, 0xbb, 0x7b, 0xdc, 0xbc, 0x3d, 0x4a, 0x84, 0x3b,
    0x9c, 0x56, 0x1a, 0xbc, 0x4a, 0x8e, 0x7d, 0x3d, 0xf9, 0x11,
    0x92, 0xbd, 0xfc, 0x62, 0x30, 0x3b, 0xb4, 0xd9, 0x1f, 0x3d,
    0x9c, 0x56, 0x9a, 0xbc, 0xcc, 0x5c, 0x25, 0xbd, 0x3d, 0x4a,
    0x04, 0xbc, 0x3d, 0x4a, 0x84, 0xbb, 0x6d, 0x50, 0x8f, 0xbc,
    0x2c, 0x69, 0x3b, 0xbd, 0x3d, 0x4a, 0x84, 0xbb, 0xbb, 0x7b,
    0x5c, 0xbd, 0x2c, 0x69, 0x3b, 0x3d, 0xfc, 0x62, 0x30, 0x3b,
    0xe1, 0x8e, 0x8c, 0x3d, 0x8b, 0x75, 0x51, 0x3d, 0x9c, 0x56,
    0x1a, 0xbc, 0x1a, 0x88, 0x72, 0x3d, 0x1a, 0x88, 0xf2, 0xbc,
    0x9c, 0x56, 0x9a, 0xbc, 0xb8, 0x2a, 0xbe, 0x3d, 0xb4, 0xd9,
    0x1f, 0xbd, 0xa3, 0xf8, 0x56, 0xbd, 0x5c, 0x6f, 0x46, 0x3c,
    0x70, 0xa1, 0xad, 0x3d, 0x58, 0x1e, 0xa8, 0x3d, 0x32, 0x0b,
    0x78, 0x3d, 0x6d, 0x50, 0x0f, 0xbd, 0xa3, 0xf8, 0x56, 0xbd,
    0x2c, 0x69, 0xbb, 0xbc, 0xcc, 0x5c, 0xa5, 0x3c, 0x8b, 0x75,
    0xd1, 0xbc, 0x70, 0xa1, 0xad, 0x3d, 0x03, 0x05, 0x6d, 0x3d,
    0xf9, 0x11, 0x12, 0x3e, 0x36, 0x02, 0x2f, 0x3e, 0x6d, 0x50,
    0x8f, 0x3d, 0x5c, 0x6f, 0xc6, 0xbc, 0xeb, 0x81, 0xe7, 0xbc,
    0xfc, 0x62, 0xb0, 0x3b, 0x1a, 0x88, 0xf2, 0x3c, 0x1a, 0x88,
    0x72, 0x3d, 0x1a, 0x88, 0x72, 0x3c, 0xb4, 0xd9, 0x9f, 0x3d,
    0x8b, 0x75, 0x51, 0xbd, 0x2c, 0x69, 0x3b, 0xbd, 0xa3, 0xf8,
    0x56, 0x3d, 0x8b, 0x75, 0xd1, 0xbc, 0x5c, 0x6f, 0xc6, 0xbc,
    0x5c, 0x6f, 0x46, 0xbc, 0x8b, 0x75, 0xd1, 0xbd, 0xfc, 0x62,
    0x30, 0xbb, 0x6d, 0x50, 0x0f, 0xbd, 0x85, 0xd3, 0x94, 0x3d,
    0x3d, 0x4a, 0x84, 0x3b, 0xfc, 0x62, 0x30, 0x3d, 0x5c, 0x6f,
    0x46, 0xbc, 0xe4, 0xdf, 0x2a, 0xbd, 0xfc, 0x62, 0xb0, 0xbb,
    0xe1, 0x8e, 0x8c, 0xbd, 0x70, 0xa1, 0xad, 0xbd, 0x9c, 0x56,
    0x9a, 0x3c, 0x1a, 0x88, 0xf2, 0xbd, 0xbb, 0x7b, 0x5c, 0x3d,
    0xb4, 0xd9, 0x1f, 0xbd, 0x8b, 0x75, 0xd1, 0x3c, 0x1a, 0x88,
    0xf2, 0x3d, 0x55, 0xcd, 0x89, 0x3d, 0xeb, 0x81, 0x67, 0xbd,
    0xfc, 0x62, 0x30, 0x3b, 0xd3, 0xfe, 0x61, 0x3d, 0x1a, 0x88,
    0x72, 0xbc, 0xbb, 0x7b, 0xdc, 0xbc, 0x2c, 0x69, 0xbb, 0xbc,
    0xfc, 0x62, 0xb0, 0xba, 0x85, 0xd3, 0x14, 0x3d, 0x6d, 0x50,
    0x0f, 0x3d, 0x3d, 0x4a, 0x04, 0x3d, 0x6d, 0x50, 0x8f, 0xbd,
    0x5c, 0x6f, 0xc6, 0xbd, 0x8b, 0x75, 0xd1, 0x3d, 0xeb, 0x81,
    0xe7, 0x3d, 0x6d, 0x50, 0x0f, 0x3d, 0x4a, 0x8e, 0xfd, 0xbc,
    0x55, 0xcd, 0x89, 0x3d, 0x32, 0x0b, 0xf8, 0x3d, 0xa3, 0xf8,
    0xd6, 0x3d, 0x8b, 0x75, 0x51, 0x3d, 0x8b, 0x75, 0x51, 0xbd,
    0xbb, 0x7b, 0xdc, 0xbc, 0x5c, 0x6f, 0x46, 0xbd, 0xd3, 0xfe,
    0x61, 0x3d, 0x3d, 0x4a, 0x04, 0xbd, 0x6d, 0x50, 0x0f, 0xbd,
    0xfc, 0x62, 0x30, 0xbb, 0xcc, 0x5c, 0xa5, 0x3c, 0x8b, 0x75,
    0xd1, 0x3c, 0x3d, 0x4a, 0x04, 0xbc, 0xb8, 0x2a, 0xbe, 0xbd,
    0xc9, 0x0b, 0x07, 0xbe, 0xfc, 0x62, 0x30, 0xbb, 0xfc, 0x62,
    0xb0, 0x3d, 0x9c, 0x56, 0x1a, 0xbc, 0x70, 0xa1, 0xad, 0x3d,
    0xb8, 0x2a, 0xbe, 0xbd, 0x6d, 0x50, 0x0f, 0xbd, 0x9c, 0x56,
    0x1a, 0xbd, 0x8b, 0x75, 0x51, 0xbd, 0xeb, 0x81, 0x67, 0xbd,
    0x5c, 0x6f, 0x46, 0xbc, 0x85, 0xd3, 0x94, 0x3d, 0x85, 0xd3,
    0x94, 0x3d, 0x32, 0x0b, 0xf8, 0xbd, 0xcc, 0x5c, 0x25, 0x3d,
    0x85, 0xd3, 0x14, 0x3d, 0x55, 0xcd, 0x09, 0x3d, 0x9c, 0x56,
    0x9a, 0x3c, 0x3d, 0x4a, 0x84, 0xbd, 0x3d, 0x4a, 0x84, 0xbb,
    0x44, 0xec, 0x40, 0xbd, 0x28, 0x18, 0x9d, 0xbd, 0xbe, 0xcc,
    0xfa, 0x3d, 0x3d, 0x4a, 0x84, 0xbc, 0x1a, 0x88, 0x72, 0x3c,
    0x14, 0xe6, 0xb5, 0x3d, 0xa0, 0xa7, 0xb8, 0x3d, 0xa3, 0xf8,
    0x56, 0x3d, 0xbb, 0x7b, 0x5c, 0xbd, 0x6d, 0x50, 0x8f, 0xbd,
    0x88, 0x24, 0xb3, 0xbd, 0xb1, 0x88, 0x81, 0x3d, 0x33, 0xb1,
    0x10, 0x3e, 0xfc, 0x62, 0xb0, 0x3c, 0xe4, 0xdf, 0x2a, 0x3d,
    0x1a, 0x88, 0x72, 0x3c, 0xcc, 0x5c, 0xa5, 0x3c, 0xeb, 0x81,
    0xe7, 0x3d, 0x4a, 0x8e, 0x7d, 0x3d, 0xbb, 0x7b, 0x5c, 0xbd,
    0xb7, 0x4a, 0xa7, 0x3d, 0xa6, 0x99, 0xa0, 0x3d, 0xc9, 0xfb,
    0x2d, 0xbd, 0x20, 0x71, 0x4f, 0x3d, 0xc9, 0xfb, 0xad, 0xbc,
    0x44, 0xd3, 0x5c, 0xbd, 0x51, 0x54, 0xb1, 0xbd, 0xec, 0x5d,
    0x3b, 0x3c, 0xfd, 0x0e, 0xc2, 0xbd, 0xa6, 0x99, 0xa0, 0xbb,
    0xc9, 0xfb, 0xad, 0xbc, 0x32, 0x22, 0x56, 0x3b, 0x94, 0xe8,
    0x19, 0xbd, 0x94, 0xe8, 0x19, 0x3d, 0xec, 0x5d, 0xbb, 0xbc,
    0x71, 0x86, 0x0c, 0xbd, 0x75, 0xb6, 0xbe, 0xbd, 0x92, 0xd0,
    0x00, 0xbe, 0xec, 0x5d, 0x3b, 0xbd, 0x82, 0x37, 0x13, 0xbd,
    0x5f, 0xd5, 0x85, 0xbc, 0x82, 0x37, 0x13, 0xbd, 0x32, 0x22,
    0xd6, 0x3a, 0x32, 0x22, 0xd6, 0xbc, 0xfd, 0x0e, 0x42, 0xbd,
    0xe8, 0x2d, 0x09, 0xbe, 0x94, 0xe8, 0x99, 0xbd, 0x5f, 0xd5,
    0x85, 0xbd, 0xec, 0x5d, 0xbb, 0xbc, 0xb7, 0x4a, 0x27, 0xbd,
    0x32, 0x22, 0x56, 0xbc, 0x78, 0xe6, 0x70, 0xbd, 0x78, 0xe6,
    0x70, 0x3c, 0x32, 0x22, 0x56, 0x3c, 0xc9, 0xfb, 0xad, 0x3d,
    0x5f, 0xd5, 0x85, 0x3c, 0x55, 0x84, 0xe3, 0xbc, 0x9b, 0x48,
    0x7e, 0xbd, 0x32, 0x22, 0xd6, 0x3b, 0xa6, 0x99, 0xa0, 0xbd,
    0x94, 0xe8, 0x99, 0x3d, 0x94, 0xe8, 0x19, 0xbd, 0x0f, 0xc0,
    0xc8, 0x3c, 0x9b, 0x48, 0x7e, 0xbd, 0xb7, 0x4a, 0x27, 0x3d,
    0x55, 0x84, 0x63, 0xbd, 0xfa, 0xde, 0x8f, 0xbd, 0x67, 0x35,
    0x6a, 0xbd, 0x32, 0x22, 0x56, 0xbb, 0x40, 0xa3, 0xaa, 0xbd,
    0x8a, 0x97, 0x77, 0xbd, 0x78, 0xe6, 0xf0, 0xbc, 0x63, 0x05,
    0xb8, 0x3d, 0x5f, 0xd5, 0x05, 0xbc, 0xa6, 0x99, 0xa0, 0x3d,
    0x82, 0x37, 0x93, 0xbc, 0xb7, 0x4a, 0xa7, 0xbd, 0xfa, 0xde,
    0x8f, 0xbd, 0x0f, 0xc0, 0x48, 0x3d, 0xa6, 0x99, 0xa0, 0x3b,
    0x0f, 0xc0, 0x48, 0x3d, 0xc9, 0xfb, 0x2d, 0x3d, 0x94, 0xe8,
    0x19, 0xbd, 0x0f, 0xc0, 0xc8, 0xbc, 0x78, 0xe6, 0x70, 0x3d,
    0xec, 0x5d, 0x3b, 0xbc, 0xb7, 0x4a, 0x27, 0x3d, 0xec, 0x5d,
    0xbb, 0x3c, 0x20, 0x71, 0x4f, 0x3d, 0x5f, 0xd5, 0x85, 0xbc,
    0x78, 0xe6, 0xf0, 0xbc, 0x63, 0x05, 0xb8, 0xbd, 0x5f, 0xd5,
    0x85, 0xbd, 0x32, 0x22, 0x56, 0xbb, 0x8a, 0x97, 0x77, 0x3d,
    0x8a, 0x97, 0x77, 0xbd, 0x8a, 0x97, 0x77, 0xbd, 0xe8, 0x2d,
    0x89, 0xbd, 0xa6, 0x99, 0x20, 0x3c, 0x71, 0x86, 0x8c, 0xbd,
    0xfa, 0xde, 0x8f, 0x3d, 0x5f, 0xd5, 0x05, 0xbd, 0x5f, 0xd5,
    0x05, 0x3d, 0xec, 0x5d, 0x3b, 0xbc, 0x44, 0xd3, 0xdc, 0x3d,
    0xfd, 0x0e, 0x42, 0xbd, 0x32, 0x22, 0x56, 0x3c, 0x55, 0x84,
    0x63, 0xbd, 0x55, 0x84, 0x63, 0x3d, 0xa6, 0x99, 0xa0, 0xbc,
    0x5f, 0xd5, 0x85, 0x3c, 0x9b, 0x48, 0xfe, 0x3c, 0xa6, 0x99,
    0xa0, 0xbb, 0x94, 0xe8, 0x19, 0xbd, 0x01, 0x3f, 0xf4, 0x3d,
    0x94, 0xe8, 0x19, 0xbd, 0x0f, 0xc0, 0x48, 0xbd, 0x51, 0x54,
    0xb1, 0xbd, 0x9b, 0x48, 0xfe, 0xbc, 0x9b, 0x48, 0xfe, 0x3c,
    0x20, 0x71, 0x4f, 0xbd, 0xa6, 0x99, 0x20, 0x3c, 0x1d, 0x41,
    0x9d, 0xbd, 0x32, 0x22, 0x56, 0xbb, 0x0f, 0xc0, 0x48, 0x3d,
    0x32, 0x22, 0x56, 0x3c, 0xec, 0x5d, 0xbb, 0x3c, 0xfa, 0xde,
    0x8f, 0xbd, 0xa6, 0x99, 0xa0, 0x3b, 0x40, 0xa3, 0xaa, 0x3d,
    0xc9, 0xfb, 0xad, 0xbc, 0x32, 0x22, 0x56, 0x3d, 0x82, 0x37,
    0x93, 0x3d, 0x71, 0x86, 0x0c, 0x3d, 0xb7, 0x4a, 0xa7, 0x3d,
    0x32, 0x22, 0x56, 0x3c, 0xfd, 0x0e, 0xc2, 0xbd, 0x78, 0xe6,
    0x70, 0xbd, 0xcc, 0x2b, 0xe0, 0x3d, 0x9b, 0x48, 0xfe, 0xbc,
    0x2e, 0xf2, 0xa3, 0x3d, 0x78, 0xe6, 0x70, 0xbd, 0x0f, 0xc0,
    0x48, 0x3d, 0x40, 0xa3, 0xaa, 0x3d, 0x32, 0x22, 0xd6, 0x3c,
    0xec, 0x5d, 0x3b, 0xbd, 0xa6, 0x99, 0x20, 0xbc, 0xa6, 0x99,
    0xa0, 0x3b, 0x32, 0x22, 0xd6, 0xba, 0x32, 0x22, 0x56, 0x3b,
    0x32, 0x22, 0xd6, 0xbb, 0xa6, 0x99, 0x20, 0x3e, 0xb5, 0x32,
    0x0e, 0x3e, 0x5f, 0xd5, 0x85, 0x3c, 0x78, 0xe6, 0x70, 0xbc,
    0xec, 0x5d, 0xbb, 0x3d, 0xe8, 0x2d, 0x89, 0x3d, 0xec, 0x5d,
    0x3b, 0x3c, 0x2e, 0xf2, 0xa3, 0x3d, 0x40, 0xa3, 0xaa, 0xbd,
    0x32, 0x22, 0x56, 0xbb, 0x0f, 0xc0, 0x48, 0x3d, 0x8a, 0x97,
    0x77, 0x3d, 0xe8, 0x2d, 0x09, 0x3e, 0xd6, 0x7c, 0x82, 0x3d,
    0x13, 0xf0, 0xfa, 0x3d, 0x82, 0x37, 0x13, 0x3d, 0x32, 0x22,
    0x56, 0xbc, 0x32, 0x22, 0xd6, 0x3a, 0x82, 0x37, 0x93, 0xbd,
    0xfa, 0xde, 0x8f, 0x3d, 0x78, 0xe6, 0x70, 0xbc, 0x1d, 0x41,
    0x9d, 0x3d, 0xfa, 0xde, 0x8f, 0x3d, 0x5f, 0xd5, 0x85, 0xbd,
    0x5f, 0xd5, 0x05, 0xbd, 0x82, 0x37, 0x93, 0xbc, 0x9b, 0x48,
    0xfe, 0x3c, 0x9b, 0x48, 0x7e, 0xbd, 0x82, 0x37, 0x13, 0xbd,
    0x98, 0x18, 0xcc, 0x3d, 0x75, 0xb6, 0xbe, 0x3d, 0xa6, 0x99,
    0x20, 0x3d, 0x1d, 0x41, 0x9d, 0x3d, 0xec, 0x5d, 0x3b, 0xbc,
    0x32, 0x22, 0x56, 0xbb, 0x82, 0x37, 0x13, 0x3d, 0x82, 0x37,
    0x93, 0x3d, 0x78, 0xe6, 0xf0, 0xbc, 0xa6, 0x99, 0x20, 0xbd,
    0xa6, 0x99, 0x20, 0x3c, 0x82, 0x37, 0x93, 0x3c, 0x82, 0x37,
    0x93, 0x3c, 0x55, 0x84, 0xe3, 0xbc, 0x32, 0x22, 0x56, 0x3b,
    0xfa, 0xde, 0x0f, 0x3e, 0x44, 0xd3, 0x5c, 0x3d, 0xa6, 0x99,
    0xa0, 0xbc, 0x9b, 0x48, 0xfe, 0xbc, 0xa6, 0x99, 0xa0, 0xbc,
    0x0f, 0xc0, 0xc8, 0xbc, 0x84, 0x4f, 0x2c, 0x3e, 0xfd, 0x0e,
    0x42, 0x3d, 0x5f, 0xd5, 0x85, 0x3d, 0xfa, 0xde, 0x8f, 0xbd,
    0x51, 0x54, 0x31, 0x3e, 0x8a, 0x97, 0xf7, 0x3d, 0xfb, 0xf6,
    0x28, 0x3e, 0x50, 0x3c, 0x18, 0x3e, 0x71, 0x86, 0x0c, 0xbd,
    0x78, 0xe6, 0x70, 0xbc, 0x82, 0x37, 0x13, 0x3d, 0x32, 0x22,
    0x56, 0x3d, 0xa4, 0x81, 0x07, 0x3e, 0xde, 0xdc, 0xe6, 0xbd,
    0x55, 0x84, 0xe3, 0x3d, 0xee, 0x75, 0x54, 0x3e, 0x98, 0x18,
    0xcc, 0x3d, 0x32, 0x22, 0x56, 0x3c, 0xfd, 0x0e, 0x42, 0xbd,
    0x32, 0x22, 0x56, 0xbc, 0x98, 0x18, 0xcc, 0x3d, 0x5f, 0xd5,
    0x85, 0xbd, 0xa6, 0x99, 0xa0, 0x3d, 0x75, 0xb6, 0xbe, 0xbd,
    0x5f, 0xd5, 0x85, 0xbd, 0xb7, 0x4a, 0xa7, 0x3d, 0x94, 0xe8,
    0x19, 0x3d, 0x32, 0x22, 0x56, 0x3c, 0x0f, 0xc0, 0x48, 0xbd,
    0x78, 0xe6, 0xf0, 0x3c, 0x94, 0xe8, 0x19, 0xbd, 0xb7, 0x4a,
    0x27, 0x3d, 0x82, 0x37, 0x13, 0x3d, 0x5f, 0xd5, 0x05, 0x3d,
    0x5f, 0xd5, 0x05, 0xbd, 0x40, 0xa3, 0xaa, 0xbd, 0x78, 0xe6,
    0x70, 0xbc, 0x0f, 0xc0, 0xc8, 0xbc, 0x94, 0xe8, 0x19, 0xbd,
    0x32, 0x22, 0xd6, 0xbd, 0x32, 0x22, 0x56, 0x3d, 0x0f, 0xc0,
    0xc8, 0xbc, 0x2e, 0xf2, 0xa3, 0x3d, 0x55, 0x84, 0xe3, 0xbc,
    0x32, 0x22, 0x56, 0x3d, 0xcc, 0x2b, 0xe0, 0x3d, 0xec, 0x5d,
    0xbb, 0x3c, 0x32, 0x22, 0xd6, 0x3c, 0x55, 0x84, 0xe3, 0xbc,
    0x78, 0xe6, 0xf0, 0x3c, 0x82, 0x37, 0x13, 0x3d, 0x0f, 0xc0,
    0xc8, 0xbc, 0xc9, 0xfb, 0xad, 0xbc, 0x20, 0x71, 0xcf, 0xbd,
    0x44, 0xd3, 0x5c, 0x3d, 0x92, 0xd0, 0x00, 0x3e, 0x78, 0xe6,
    0x70, 0x3d, 0x78, 0xe6, 0xf0, 0x3d, 0x5f, 0xd5, 0x05, 0xbe,
    0x32, 0x22, 0xd6, 0xbb, 0xa9, 0xc9, 0xd2, 0x3d, 0xec, 0x5d,
    0xbb, 0xbc, 0x94, 0xe8, 0x19, 0x3d, 0x0b, 0x90, 0x96, 0xbd,
    0xda, 0xac, 0xb4, 0x3d, 0x1b, 0x29, 0x04, 0x3e, 0x86, 0x67,
    0x45, 0x3e, 0x82, 0x37, 0x93, 0x3c, 0x0b, 0x90, 0x96, 0xbd,
    0xa8, 0xcd, 0xa3, 0x3b, 0x73, 0x57, 0xc9, 0xbd, 0x20, 0x74,
    0xb1, 0xbc, 0xa8, 0xcd, 0xa3, 0x3c, 0x99, 0x1a, 0xbf, 0x3c,
    0xe4, 0xa0, 0xaa, 0xbd, 0x20, 0x74, 0xb1, 0x3c, 0xe4, 0xa0,
    0x2a, 0x3d, 0x8a, 0x67, 0xda, 0xbb, 0x8a, 0x67, 0x5a, 0x3d,
    0x8a, 0x67, 0xda, 0x3c, 0xfb, 0xb0, 0xbb, 0xbd, 0x11, 0xc1,
    0xcc, 0x3c, 0x18, 0x17, 0x85, 0xbd, 0xf3, 0x53, 0x0f, 0x3d,
    0x91, 0xbd, 0x92, 0xbd, 0x8a, 0x67, 0xda, 0xbb, 0xfb, 0xb0,
    0xbb, 0xbd, 0x99, 0x1a, 0x3f, 0x3c, 0x7a, 0xad, 0x81, 0x3d,
    0x20, 0x74, 0xb1, 0xbc, 0x99, 0x1a, 0xbf, 0x3c, 0xe4, 0xa0,
    0x2a, 0xbd, 0x8a, 0x67, 0xda, 0x3a, 0xa8, 0xcd, 0x23, 0x3d,
    0x99, 0x1a, 0x3f, 0x3c, 0xa8, 0xcd, 0xa3, 0xbc, 0xa8, 0xcd,
    0xa3, 0x3b, 0x20, 0x74, 0xb1, 0x3c, 0x8a, 0x67, 0x5a, 0xbd,
    0x5c, 0x47, 0xb8, 0x3d, 0x6b, 0xfa, 0x1c, 0xbd, 0x03, 0x0e,
    0x68, 0xbd, 0xd5, 0xed, 0x45, 0xbd, 0xb6, 0x80, 0x08, 0xbd,
    0x99, 0x1a, 0x3f, 0xbd, 0x03, 0x0e, 0xe8, 0xbc, 0x7b, 0xb4,
    0x75, 0xbd, 0x4e, 0x94, 0x53, 0xbd, 0xa8, 0xcd, 0xa3, 0x3d,
    0xf3, 0x53, 0x0f, 0xbd, 0x00, 0x00, 0x00, 0x00, 0xa8, 0xcd,
    0xa3, 0x3b, 0x8a, 0x67, 0xda, 0xbb, 0x7a, 0xad, 0x01, 0x3d,
    0x7a, 0xad, 0x01, 0x3d, 0x8a, 0x67, 0x5a, 0xbd, 0x7b, 0xb4,
    0xf5, 0xbc, 0xd5, 0xed, 0xc5, 0xbd, 0x03, 0x0e, 0xe8, 0x3c,
    0x2f, 0x27, 0x96, 0x3d, 0xa8, 0xcd, 0xa3, 0xbd, 0xf3, 0x53,
    0x0f, 0x3d, 0x2f, 0x27, 0x16, 0xbd, 0xf3, 0x53, 0x0f, 0x3d,
    0xb6, 0x80, 0x88, 0x3c, 0x56, 0xf1, 0xff, 0xbd, 0xa8, 0xcd,
    0xa3, 0xbb, 0x03, 0x0e, 0x68, 0xbd, 0x4e, 0x94, 0x53, 0xbd,
    0x11, 0xc1, 0x4c, 0x3d, 0x00, 0x00, 0x00, 0x00, 0xb6, 0x80,
    0x88, 0xbc, 0x8a, 0x67, 0x5a, 0xbc, 0xa8, 0xcd, 0xa3, 0x3b,
    0x7a, 0xad, 0x01, 0xbd, 0xa8, 0xcd, 0x23, 0x3c, 0x7b, 0xb4,
    0xf5, 0xbc, 0xc6, 0x3a, 0x61, 0x3d, 0xa8, 0xcd, 0x23, 0x3d,
    0x60, 0x72, 0x14, 0x3e, 0xb6, 0x80, 0x88, 0xbc, 0x11, 0xc1,
    0x4c, 0xbd, 0x8a, 0x67, 0x5a, 0xbd, 0x11, 0xc1, 0x4c, 0xbd,
    0xf3, 0x53, 0x0f, 0x3d, 0x8a, 0x67, 0xda, 0xba, 0x8a, 0x67,
    0x5a, 0xbd, 0xf3, 0x53, 0x0f, 0xbd, 0x7b, 0xb4, 0x75, 0xbd,
    0x23, 0x9f, 0x0d, 0x3e, 0xcd, 0x90, 0x99, 0xbd, 0x5c, 0x47,
    0x38, 0xbd, 0x20, 0x74, 0x31, 0x3d, 0x7a, 0xad, 0x01, 0x3d,
    0x37, 0x84, 0xc2, 0xbd, 0x8a, 0x67, 0x5a, 0xbd, 0xa8, 0xcd,
    0xa3, 0xbc, 0x99, 0x1a, 0xbf, 0xbd, 0x11, 0xc1, 0x4c, 0xbd,
    0x4e, 0x94, 0x53, 0x3d, 0x7b, 0xb4, 0xf5, 0x3c, 0x8a, 0x67,
    0xda, 0xbc, 0xd5, 0xed, 0x45, 0xbd, 0x7a, 0xad, 0x01, 0x3d,
    0x99, 0x1a, 0xbf, 0x3c, 0xcd, 0x90, 0x99, 0x3d, 0x11, 0xc1,
    0xcc, 0x3d, 0x18, 0x17, 0x85, 0xbd, 0x99, 0x1a, 0x3f, 0xbc,
    0x2f, 0x27, 0x96, 0xbc, 0x7b, 0xb4, 0x75, 0x3c, 0x03, 0x0e,
    0xe8, 0x3c, 0x8a, 0x67, 0xda, 0xbc, 0x4e, 0x94, 0x53, 0x3d,
    0x18, 0x17, 0x85, 0xbd, 0xb6, 0x80, 0x88, 0xbc, 0xd5, 0xed,
    0xc5, 0xbd, 0x2f, 0x27, 0x16, 0x3d, 0x8a, 0x67, 0xda, 0xbb,
    0x18, 0x17, 0x85, 0xbd, 0x20, 0x74, 0xb1, 0xbc, 0x8a, 0x67,
    0x5a, 0xbd, 0x11, 0xc1, 0xcc, 0x3c, 0x7b, 0xb4, 0x75, 0xbd,
    0x5c, 0x47, 0xb8, 0xbd, 0xf3, 0x53, 0x8f, 0xbd, 0x00, 0x00,
    0x00, 0x00, 0x8a, 0x67, 0x5a, 0xbd, 0x8a, 0x67, 0xda, 0xba,
    0xa8, 0xcd, 0x23, 0x3c, 0xb6, 0x80, 0x08, 0x3c, 0x6b, 0xfa,
    0x9c, 0xbd, 0x99, 0x1a, 0x3f, 0x3c, 0x4e, 0x94, 0x53, 0xbd,
    0x2f, 0x27, 0x16, 0x3d, 0x91, 0xbd, 0x92, 0xbd, 0x2f, 0x27,
    0x16, 0x3d, 0x73, 0x57, 0xc9, 0xbd, 0x54, 0xea, 0x0b, 0x3e,
    0x8a, 0x67, 0x5a, 0xbc, 0x20, 0x74, 0xb1, 0x3c, 0x8a, 0x67,
    0x5a, 0x3b, 0x2f, 0x27, 0x96, 0xbc, 0xa8, 0xcd, 0x23, 0xbd,
    0xa8, 0xcd, 0xa3, 0xbb, 0x20, 0x74, 0xb1, 0x3c, 0x7b, 0xb4,
    0xf5, 0x3c, 0xd5, 0xed, 0x45, 0xbd, 0x99, 0x1a, 0x3f, 0x3d,
    0x20, 0x74, 0x31, 0x3d, 0xa8, 0xcd, 0x23, 0x3c, 0x09, 0x64,
    0xa0, 0xbd, 0x7b, 0xb4, 0x75, 0x3c, 0xa8, 0xcd, 0x23, 0xbc,
    0xa8, 0xcd, 0xa3, 0xbd, 0x03, 0x0e, 0xe8, 0xbc, 0xa8, 0xcd,
    0xa3, 0x3c, 0xd5, 0xed, 0x45, 0xbd, 0x7a, 0xad, 0x81, 0x3d,
    0x8a, 0x67, 0x5a, 0x3d, 0x46, 0x37, 0x27, 0xbe, 0x20, 0x74,
    0xb1, 0xbd, 0x20, 0x74, 0xb1, 0xbd, 0xf3, 0x53, 0x0f, 0xbd,
    0xd8, 0x18, 0x22, 0xbe, 0x7a, 0xad, 0x01, 0xbe, 0x8a, 0x67,
    0x5a, 0x3b, 0xa8, 0xcd, 0xa3, 0x3c, 0x20, 0x74, 0xb1, 0xbc,
    0x8a, 0x67, 0xda, 0xba, 0x09, 0x64, 0xa0, 0xbd, 0x5c, 0x47,
    0xb8, 0xbd, 0xb0, 0x2a, 0xd0, 0xbd, 0x11, 0xc1, 0xcc, 0x3c,
    0xb0, 0x2a, 0xd0, 0xbd, 0x73, 0x57, 0xc9, 0xbd, 0x7a, 0xad,
    0x81, 0xbd, 0x03, 0x0e, 0xe8, 0xbc, 0x99, 0x1a, 0xbf, 0x3d,
    0x8a, 0x67, 0xda, 0xbb, 0x20, 0x74, 0xb1, 0xbc, 0xb6, 0x80,
    0x88, 0xbc, 0xb6, 0x80, 0x08, 0xbc, 0x8a, 0x67, 0xda, 0x3c,
    0x03, 0x0e, 0xe8, 0xbc, 0xdd, 0x4a, 0xf2, 0xbd, 0x7b, 0xb4,
    0x75, 0x3c, 0xf3, 0x53, 0x8f, 0xbd, 0x99, 0x1a, 0xbf, 0xbc,
    0x4e, 0x94, 0x53, 0x3d, 0x4e, 0x94, 0x53, 0xbd, 0x8a, 0x67,
    0x5a, 0x3c, 0xf3, 0x53, 0x0f, 0xbe, 0x09, 0x64, 0xa0, 0xbd,
    0xa8, 0xcd, 0x23, 0xbc, 0x82, 0x0a, 0x2e, 0xbe, 0x18, 0x17,
    0x85, 0xbd, 0x8a, 0x67, 0xda, 0xbd, 0x03, 0x0e, 0xe8, 0xbc,
    0x8a, 0x67, 0xda, 0x3c, 0x7b, 0xb4, 0xf5, 0xbc, 0xbe, 0xdd,
    0xb4, 0xbd, 0xa8, 0xcd, 0xa3, 0xbc, 0x8a, 0x67, 0x5a, 0xbd,
    0x3f, 0xe1, 0x6e, 0xbd, 0x11, 0xc1, 0x4c, 0xbd, 0x54, 0xea,
    0x8b, 0xbd, 0x64, 0xa4, 0xe4, 0xbd, 0x91, 0xbd, 0x92, 0x3d,
    0xf3, 0x53, 0x0f, 0x3d, 0x8a, 0x67, 0x5a, 0xbd, 0x7b, 0xb4,
    0xf5, 0xbd, 0x18, 0x17, 0x05, 0xbe, 0x03, 0x0e, 0xe8, 0x3c,
    0xf3, 0x53, 0x0f, 0xbd, 0x99, 0x1a, 0x3f, 0xbc, 0x2f, 0x27,
    0x96, 0xbc, 0x11, 0xc1, 0x4c, 0xbd, 0x4e, 0x94, 0xd3, 0xbd,
    0x8a, 0x67, 0xda, 0x3c, 0xf3, 0x53, 0x0f, 0xbe, 0xdd, 0x4a,
    0xf2, 0xbd, 0x49, 0x62, 0x03, 0xbe, 0x7b, 0xb4, 0xf5, 0x3c,
    0x68, 0xcf, 0x40, 0xbe, 0x2c, 0xfc, 0x39, 0xbe, 0x99, 0x1a,
    0xbf, 0xbc, 0x8a, 0x67, 0x5a, 0x3b, 0x7a, 0xad, 0x81, 0xbd,
    0x8a, 0x67, 0x5a, 0x3c, 0x7b, 0xb4, 0xf5, 0xbc, 0xbe, 0xdd,
    0xb4, 0xbd, 0x99, 0x1a, 0xbf, 0xbc, 0x11, 0xc1, 0xcc, 0xbd,
    0x85, 0x35, 0x0a, 0xbe, 0x91, 0xbd, 0x92, 0xbd, 0xcd, 0x90,
    0x99, 0xbd, 0x4e, 0x94, 0x53, 0xbd, 0xa8, 0xcd, 0xa3, 0xbd,
    0x99, 0x1a, 0x3f, 0xbc, 0x09, 0x64, 0xa0, 0xbd, 0x6b, 0xfa,
    0x1c, 0xbd, 0xa8, 0xcd, 0xa3, 0xbc, 0x8a, 0x67, 0xda, 0x3c,
    0x5c, 0x47, 0x38, 0xbd, 0x3f, 0xe1, 0xee, 0xbd, 0xef, 0x28,
    0x33, 0xbe, 0x20, 0x74, 0xb1, 0xbc, 0xb6, 0x80, 0x08, 0x3d,
    0xb6, 0x80, 0x88, 0x3c, 0xbb, 0xb2, 0x58, 0xbe, 0x4e, 0x94,
    0xd3, 0xbd, 0x03, 0x0e, 0xe8, 0xbc, 0x20, 0x74, 0xb1, 0x3c,
    0xcd, 0x90, 0x99, 0xbd, 0x7a, 0xad, 0x01, 0xbe, 0xdd, 0x4a,
    0xf2, 0xbd, 0xcd, 0x90, 0x19, 0xbe, 0x7a, 0xad, 0x01, 0x3d,
    0x34, 0x46, 0x2e, 0xbd, 0x07, 0xec, 0x86, 0xbc, 0x5f, 0xe5,
    0x33, 0xbd, 0x5d, 0x2a, 0x12, 0xbd, 0x61, 0xa0, 0x55, 0x3d,
    0x34, 0x46, 0xae, 0xbd, 0xb3, 0x68, 0x1d, 0xbc, 0x94, 0x7d,
    0x32, 0xbe, 0x5f, 0xe5, 0x33, 0x3b, 0x34, 0x46, 0x2e, 0xbd,
    0x5f, 0xe5, 0xb3, 0xba, 0x0b, 0x62, 0xca, 0x3c, 0x32, 0x8b,
    0x8c, 0xbd, 0x0d, 0x1d, 0x6c, 0x3d, 0x61, 0xa0, 0xd5, 0xbc,
    0x32, 0x8b, 0x8c, 0xbd, 0xb7, 0xde, 0xe0, 0xbc, 0xb7, 0xde,
    0x60, 0xbd, 0x07, 0xec, 0x06, 0xbc, 0xde, 0x07, 0x23, 0xbd,
    0xdc, 0x4c, 0x01, 0xbd, 0xdc, 0x4c, 0x01, 0xbd, 0xd2, 0x53,
    0x08, 0xbe, 0xdc, 0x4c, 0x81, 0x3d, 0x63, 0x5b, 0x77, 0x3c,
    0xf3, 0xf9, 0x94, 0xbd, 0xb5, 0x23, 0xbf, 0xbd, 0x61, 0xa0,
    0xd5, 0xbc, 0xb7, 0xde, 0xe0, 0xbb, 0x36, 0x01, 0x50, 0xbd,
    0x88, 0xc9, 0x17, 0x3d, 0x74, 0xd7, 0xa5, 0xbd, 0x61, 0xa0,
    0x55, 0xbd, 0x9f, 0x76, 0xab, 0xbd, 0xb3, 0x68, 0x9d, 0x3d,
    0x07, 0xec, 0x86, 0xbc, 0x88, 0xc9, 0x97, 0xbd, 0x07, 0xec,
    0x86, 0xbc, 0x0b, 0x62, 0xca, 0x3c, 0x1e, 0x99, 0x9a, 0xbd,
    0xb7, 0xde, 0xe0, 0xbb, 0xb7, 0xde, 0x60, 0xbd, 0x9d, 0xbb,
    0x89, 0xbd, 0x09, 0xa7, 0x28, 0x3d, 0xb3, 0x68, 0x1d, 0xbc,
    0x5f, 0xe5, 0x33, 0x3c, 0x8a, 0x84, 0x39, 0xbd, 0x5d, 0x2a,
    0x12, 0xbd, 0xdc, 0x4c, 0x81, 0xbd, 0xb7, 0xde, 0xe0, 0xbc,
    0xbd, 0x61, 0x16, 0xbe, 0xdc, 0x4c, 0x81, 0x3d, 0xe0, 0xc2,
    0xc4, 0xbd, 0x8c, 0x3f, 0x5b, 0x3d, 0xb3, 0x68, 0x9d, 0x3c,
    0x07, 0xec, 0x06, 0xbd, 0x5f, 0xe5, 0xb3, 0xba, 0x13, 0xa0,
    0x21, 0xbe, 0xb7, 0xde, 0xe0, 0xbb, 0x61, 0xa0, 0x55, 0xbd,
    0xb7, 0xde, 0xe0, 0x3c, 0x63, 0x5b, 0x77, 0x3c, 0xe0, 0xc2,
    0x44, 0xbd, 0x5d, 0x2a, 0x92, 0x3d, 0xb3, 0x68, 0x1d, 0xbd,
    0x5d, 0x2a, 0x12, 0x3d, 0x88, 0xc9, 0x97, 0x3d, 0x28, 0x92,
    0x13, 0xbe, 0xb7, 0xde, 0xe0, 0xbb, 0x63, 0x5b, 0x77, 0x3c,
    0xb5, 0x23, 0xbf, 0xbc, 0xb3, 0x68, 0x9d, 0x3d, 0x0b, 0x62,
    0x4a, 0xbc, 0xb3, 0x68, 0x9d, 0xbd, 0x61, 0xa0, 0xd5, 0xbc,
    0x5f, 0xe5, 0x33, 0xbd, 0x9f, 0x76, 0xab, 0xbd, 0xe2, 0x7d,
    0xe6, 0xbd, 0x5f, 0xe5, 0x33, 0x3c, 0x88, 0xc9, 0x17, 0xbd,
    0x07, 0xec, 0x86, 0xbb, 0x88, 0xc9, 0x97, 0x3d, 0x32, 0x8b,
    0x8c, 0xbd, 0x61, 0xa0, 0x55, 0xbd, 0x1e, 0x99, 0x9a, 0xbd,
    0x07, 0xec, 0x86, 0x3b, 0x21, 0x0f, 0xde, 0xbd, 0xb5, 0x23,
    0xbf, 0x3c, 0xde, 0x07, 0xa3, 0xbd, 0x09, 0xa7, 0xa8, 0xbc,
    0x4a, 0xf3, 0xc1, 0x3d, 0xe0, 0xc2, 0xc4, 0x3d, 0x75, 0x92,
    0xc7, 0xbd, 0xdc, 0x4c, 0x01, 0x3e, 0x8a, 0x84, 0x39, 0xbd,
    0xb3, 0x68, 0x9d, 0x3c, 0x32, 0x8b, 0x8c, 0x3d, 0x61, 0xa0,
    0xd5, 0xbc, 0xb3, 0x68, 0x9d, 0xbc, 0x07, 0xec, 0x86, 0x3b,
    0x9d, 0xbb, 0x89, 0xbd, 0x1e, 0x99, 0x9a, 0xbd, 0x8c, 0x3f,
    0x5b, 0xbd, 0x00, 0x00, 0x00, 0x00, 0x1e, 0x99, 0x9a, 0xbd,
    0xb7, 0xde, 0xe0, 0x3c, 0xb7, 0xde, 0x60, 0x3c, 0xa2, 0xec,
    0xee, 0xbd, 0xe0, 0xc2, 0x44, 0xbd, 0xb7, 0xde, 0xe0, 0xbb,
    0x4a, 0xf3, 0xc1, 0xbd, 0xb7, 0xde, 0xe0, 0xbc, 0x5d, 0x2a,
    0x92, 0xbc, 0xe0, 0xc2, 0x44, 0x3d, 0x88, 0xc9, 0x97, 0xbd,
    0x32, 0x8b, 0x8c, 0x3d, 0x34, 0x46, 0xae, 0x3d, 0x0d, 0x1d,
    0x6c, 0xbd, 0x5f, 0xe5, 0x33, 0x3c, 0x61, 0xa0, 0xd5, 0x3c,
    0xe0, 0xc2, 0x44, 0xbd, 0xb7, 0xde, 0xe0, 0xbb, 0x09, 0xa7,
    0x28, 0x3d, 0x8e, 0xfa, 0x7c, 0x3d, 0x5d, 0x2a, 0x92, 0x3c,
    0x63, 0x5b, 0x77, 0x3d, 0x3d, 0x84, 0x05, 0x3e, 0xf3, 0xf9,
    0x94, 0xbd, 0x09, 0xa7, 0xa8, 0xbc, 0x34, 0x46, 0x2e, 0xbd,
    0x88, 0xc9, 0x17, 0x3d, 0xdc, 0x4c, 0x01, 0x3d, 0x9f, 0x76,
    0xab, 0xbd, 0x74, 0xd7, 0xa5, 0x3d, 0x07, 0xec, 0x86, 0xbb,
    0x0b, 0x62, 0x4a, 0xbc, 0x5f, 0xe5, 0x33, 0x3b, 0xb5, 0x23,
    0x3f, 0xbd, 0x09, 0xa7, 0x28, 0xbd, 0x5d, 0x2a, 0x12, 0xbd,
    0x07, 0xec, 0x86, 0x3b, 0xe0, 0xc2, 0xc4, 0x3d, 0x8e, 0xfa,
    0x7c, 0x3d, 0x8a, 0x84, 0xb9, 0x3d, 0xb7, 0xde, 0xe0, 0xbb,
    0xe0, 0xc2, 0xc4, 0x3d, 0xf6, 0x6f, 0xd8, 0x3d, 0xe2, 0x7d,
    0x66, 0x3d, 0x09, 0xa7, 0xa8, 0x3d, 0xb5, 0x23, 0x3f, 0xbd,
    0x8e, 0xfa, 0x7c, 0xbd, 0xe0, 0xc2, 0x44, 0xbd, 0x49, 0x38,
    0xa0, 0x3d, 0x07, 0xec, 0x86, 0xbc, 0xb3, 0x68, 0x1d, 0x3d,
    0x34, 0x46, 0x2e, 0x3d, 0xc8, 0x5a, 0x8f, 0xbd, 0x32, 0x8b,
    0x0c, 0xbd, 0xa0, 0x31, 0xcd, 0xbd, 0x36, 0x01, 0x50, 0x3d,
    0xa0, 0x31, 0xcd, 0xbd, 0x74, 0xd7, 0xa5, 0x3d, 0x8e, 0xfa,
    0x7c, 0x3d, 0xb3, 0x68, 0x9d, 0x3c, 0x0d, 0x1d, 0xec, 0xbc,
    0x9f, 0x76, 0xab, 0x3d, 0x07, 0xec, 0x06, 0x3c, 0x5d, 0x2a,
    0x92, 0x3d, 0xb7, 0xde, 0x60, 0xbd, 0x88, 0xc9, 0x17, 0xbd,
    0xb3, 0x68, 0x1d, 0x3c, 0x5f, 0xe5, 0x33, 0x3c, 0x34, 0x46,
    0xae, 0x3d, 0x61, 0xa0, 0x55, 0x3d, 0xb3, 0x68, 0x1d, 0xbd,
    0xcd, 0x8b, 0xf4, 0x3d, 0x09, 0xa7, 0x28, 0x3e, 0x32, 0x8b,
    0x0c, 0x3d, 0xe0, 0xc2, 0x44, 0xbd, 0x32, 0x8b, 0x8c, 0x3d,
    0xdc, 0x4c, 0x01, 0xbd, 0x4c, 0xae, 0xe3, 0x3d, 0x67, 0x23,
    0x0b, 0x3e, 0x00, 0x00, 0x00, 0x00, 0x61, 0xa0, 0xd5, 0x3d,
    0xdc, 0x4c, 0x81, 0x3d, 0x8a, 0x84, 0x39, 0x3d, 0x07, 0xec,
    0x06, 0x3e, 0x9d, 0xbb, 0x89, 0x3d, 0x8a, 0x84, 0x39, 0xbd,
    0xde, 0x07, 0x23, 0xbd, 0x92, 0xc2, 0x10, 0x3e, 0x75, 0x92,
    0xc7, 0x3d, 0x32, 0x8b, 0x0c, 0x3d, 0x07, 0xec, 0x86, 0x3d,
    0x5f, 0xe5, 0xb3, 0x3b, 0x36, 0x01, 0x50, 0x3d, 0xb7, 0xde,
    0xe0, 0x3d, 0xe2, 0x7d, 0x66, 0x3d, 0x5f, 0xe5, 0x33, 0xbc,
    0x63, 0x5b, 0x77, 0x3d, 0x1f, 0x54, 0xbc, 0xbd, 0xb7, 0xde,
    0x60, 0x3d, 0x5f, 0xe5, 0x33, 0xbd, 0x9f, 0x76, 0xab, 0x3d,
    0x8c, 0x3f, 0x5b, 0x3d, 0x38, 0xbc, 0x71, 0x3d, 0x5f, 0xe5,
    0x33, 0x3b, 0x5d, 0x2a, 0x92, 0x3d, 0x63, 0x5b, 0x77, 0xbc,
    0x0d, 0x1d, 0x6c, 0x3d, 0x0b, 0x62, 0xca, 0x3d, 0x07, 0xec,
    0x06, 0x3c, 0x34, 0x46, 0xae, 0xbd, 0x5d, 0x2a, 0x92, 0xbc,
    0x09, 0xa7, 0xa8, 0x3c, 0x0b, 0x62, 0xca, 0x3d, 0x5d, 0x2a,
    0x92, 0x3d, 0x61, 0xa0, 0x55, 0x3d, 0x07, 0xec, 0x06, 0xbd,
    0xde, 0x07, 0x23, 0x3d, 0x07, 0xec, 0x06, 0xbc, 0x8c, 0x3f,
    0xdb, 0x3d, 0xb3, 0x68, 0x1d, 0xbd, 0xa2, 0xec, 0xee, 0x3d,
    0x38, 0xbc, 0x71, 0x3d, 0xf6, 0x6f, 0xd8, 0x3d, 0xfd, 0xf2,
    0x0d, 0x3e, 0xe2, 0x7d, 0x66, 0x3d, 0x88, 0xc9, 0x17, 0xbd,
    0x63, 0x5b, 0x77, 0xbc, 0x5f, 0xe5, 0xb3, 0x3a, 0xa0, 0x31,
    0xcd, 0x3d, 0xe0, 0xc2, 0xc4, 0x3d, 0xa2, 0xec, 0xee, 0x3d,
    0xb3, 0x68, 0x1d, 0x3e, 0x32, 0x8b, 0x0c, 0x3d, 0x94, 0x7d,
    0x32, 0x3e, 0x0b, 0x62, 0x4a, 0xbc, 0x8a, 0x84, 0x39, 0xbd,
    0x09, 0xa7, 0xa8, 0xbc, 0x36, 0x01, 0xd0, 0x3d, 0xca, 0x15,
    0x31, 0x3e, 0xe0, 0xc2, 0x44, 0x3d, 0x09, 0xa7, 0x28, 0x3d,
    0x0d, 0x1d, 0xec, 0xbc, 0x5d, 0x2a, 0x92, 0x3d, 0xb5, 0x23,
    0x3f, 0x3d, 0xd2, 0x53, 0x08, 0x3e, 0x5f, 0xe5, 0x33, 0x3c,
    0x22, 0x78, 0x5f, 0xbc, 0xe6, 0x03, 0xa2, 0x3d, 0x82, 0xc6,
    0x32, 0x3d, 0x86, 0xb5, 0x4e, 0x3d, 0x8b, 0xa4, 0x6a, 0xbd,
    0x4e, 0x30, 0xad, 0x3d, 0xd9, 0x05, 0xf3, 0x3d, 0x16, 0xab,
    0x0b, 0x3d, 0xea, 0xf2, 0xbd, 0xbc, 0x1a, 0x9a, 0xa7, 0xbc,
    0xb2, 0x6d, 0x1c, 0x3c, 0x22, 0x78, 0x5f, 0xbc, 0xb2, 0x6d,
    0x9c, 0x3c, 0x8b, 0xa4, 0x6a, 0xbd, 0x30, 0x76, 0x8e, 0x3d,
    0xe2, 0x14, 0x86, 0xbc, 0xa0, 0x80, 0xd1, 0x3d, 0xe2, 0x14,
    0x06, 0x3d, 0xf3, 0xd0, 0xf5, 0x3c, 0x00, 0x00, 0x00, 0x00,
    0xe2, 0x14, 0x06, 0x3c, 0x82, 0xc6, 0x32, 0xbb, 0x4e, 0x30,
    0x2d, 0x3d, 0x7e, 0xd7, 0x16, 0xbd, 0xb2, 0x6d, 0x9c, 0xbd,
    0x22, 0x78, 0xdf, 0xbc, 0x00, 0xcf, 0xa4, 0xbd, 0x57, 0x0e,
    0x65, 0xbd, 0xb2, 0x6d, 0x9c, 0x3c, 0x52, 0x1f, 0xc9, 0xbc,
    0x22, 0x78, 0x5f, 0xbd, 0x27, 0x67, 0x7b, 0xbd, 0x4a, 0x41,
    0x11, 0x3d, 0x7e, 0xd7, 0x16, 0xbd, 0x52, 0x1f, 0xc9, 0xbd,
    0xe2, 0x14, 0x86, 0x3b, 0xad, 0x7e, 0x00, 0x3d, 0x1a, 0x9a,
    0xa7, 0x3c, 0x4e, 0x30, 0x2d, 0x3d, 0x1a, 0x9a, 0x27, 0x3d,
    0xba, 0x4b, 0xd4, 0xbc, 0xe2, 0x14, 0x86, 0xbc, 0x8b, 0xa4,
    0xea, 0xbc, 0xf3, 0xd0, 0xf5, 0x3c, 0x52, 0x1f, 0xc9, 0xbc,
    0x89, 0x45, 0x0a, 0x3e, 0xe2, 0x14, 0x86, 0x3b, 0xf3, 0xd0,
    0x75, 0x3c, 0xbf, 0x3a, 0x70, 0x3d, 0xd0, 0x27, 0xbb, 0x3d,
    0x22, 0x78, 0x5f, 0x3d, 0xe6, 0x03, 0x22, 0xbd, 0x3d, 0x43,
    0xe2, 0x3d, 0xe2, 0x14, 0x06, 0x3d, 0x57, 0x0e, 0x65, 0xbd,
    0xb2, 0x6d, 0x1c, 0xbd, 0xb2, 0x6d, 0x1c, 0xbc, 0xc7, 0x49,
    0x83, 0xbd, 0x22, 0x78, 0xdf, 0x3c, 0x1a, 0x9a, 0xa7, 0xbc,
    0xf3, 0xd0, 0x75, 0xbc, 0x22, 0x78, 0xdf, 0xbb, 0xb2, 0x6d,
    0x1c, 0xbc, 0x4a, 0x41, 0x11, 0xbd, 0x82, 0xc6, 0x32, 0x3d,
    0xe2, 0x14, 0x06, 0xbd, 0xe2, 0x14, 0x86, 0x3c, 0x4a, 0x41,
    0x11, 0xbd, 0x52, 0x1f, 0xc9, 0xbd, 0xba, 0x4b, 0xd4, 0xbc,
    0xf3, 0xd0, 0x75, 0xbc, 0xf3, 0xd0, 0x75, 0x3c, 0x82, 0xc6,
    0x32, 0xbd, 0x82, 0xc6, 0xb2, 0x3a, 0x7e, 0xd7, 0x16, 0xbd,
    0xf3, 0xd0, 0xf5, 0x3c, 0x16, 0xab, 0x8b, 0xbd, 0xea, 0xf2,
    0x3d, 0xbd, 0x1e, 0x89, 0xc3, 0xbd, 0xba, 0x4b, 0xd4, 0x3c,
    0xfc, 0xdf, 0x88, 0xbd, 0xe2, 0x14, 0x86, 0xbd, 0xe2, 0x14,
    0x06, 0x3d, 0x8b, 0xa4, 0xea, 0xbc, 0x52, 0x1f, 0x49, 0xbc,
    0x16, 0xab, 0x8b, 0x3d, 0x82, 0xc6, 0x32, 0xbd, 0xf3, 0xd0,
    0xf5, 0x3c, 0x04, 0xbe, 0xc0, 0xbd, 0x4e, 0x30, 0xad, 0x3d,
    0xba, 0x4b, 0xd4, 0xbc, 0x38, 0x54, 0xc6, 0xbd, 0x82, 0xc6,
    0xb2, 0xba, 0x82, 0xc6, 0x32, 0x3b, 0xe6, 0x03, 0x22, 0xbd,
    0x71, 0xd9, 0xe7, 0x3d, 0xb6, 0x5c, 0x38, 0xbd, 0x08, 0xad,
    0xdc, 0x3d, 0xe6, 0x03, 0x22, 0xbd, 0x82, 0xc6, 0xb2, 0xbc,
    0x27, 0x67, 0x7b, 0x3d, 0x52, 0x1f, 0xc9, 0xbc, 0x30, 0x76,
    0x8e, 0x3d, 0xad, 0x7e, 0x80, 0xbd, 0xee, 0xe1, 0x59, 0xbd,
    0xb2, 0x6d, 0x1c, 0xbd, 0xe2, 0x14, 0x06, 0xbd, 0x1a, 0x9a,
    0xa7, 0x3c, 0x86, 0xb5, 0x4e, 0xbd, 0x00, 0x00, 0x00, 0x00,
    0xad, 0x7e, 0x00, 0x3d, 0xad, 0x7e, 0x00, 0xbd, 0x57, 0x0e,
    0x65, 0x3d, 0x98, 0xa2, 0x99, 0xbd, 0x4e, 0x30, 0x2d, 0xbd,
    0xea, 0xf2, 0xbd, 0xbc, 0xad, 0x7e, 0x00, 0xbd, 0x82, 0xc6,
    0xb2, 0x3c, 0xd4, 0x16, 0xd7, 0xbd, 0x00, 0x00, 0x00, 0x00,
    0xad, 0x7e, 0x00, 0x3e, 0x4a, 0x41, 0x91, 0xbc, 0x82, 0xc6,
    0xb2, 0x3c, 0xe2, 0x14, 0x86, 0xbc, 0xe6, 0x03, 0x22, 0xbd,
    0x68, 0xfb, 0xaf, 0x3d, 0x82, 0xc6, 0xb2, 0xbc, 0xb2, 0x6d,
    0x9c, 0x3c, 0xe2, 0x14, 0x06, 0x3c, 0xb6, 0x5c, 0x38, 0xbd,
    0xb2, 0x6d, 0x9c, 0x3c, 0x9c, 0x91, 0xb5, 0xbd, 0x68, 0xfb,
    0xaf, 0xbd, 0x64, 0x0c, 0x94, 0xbd, 0x8b, 0xa4, 0x6a, 0x3d,
    0xc7, 0x49, 0x83, 0xbd, 0x22, 0x78, 0xdf, 0x3b, 0x82, 0xc6,
    0x32, 0xbc, 0xe2, 0x14, 0x06, 0xbe, 0xb6, 0x5c, 0x38, 0x3d,
    0xe2, 0x14, 0x86, 0x3b, 0x64, 0x0c, 0x94, 0xbd, 0x86, 0xb5,
    0x4e, 0x3d, 0x52, 0x1f, 0x49, 0xbd, 0x16, 0xab, 0x0b, 0xbd,
    0xf3, 0xd0, 0x75, 0xbc, 0x57, 0x0e, 0x65, 0xbd, 0xb2, 0x6d,
    0x9c, 0x3d, 0x52, 0x1f, 0x49, 0xbc, 0x16, 0xab, 0x0b, 0xbd,
    0x4e, 0x30, 0xad, 0x3d, 0xd0, 0x27, 0xbb, 0xbd, 0x82, 0xc6,
    0x32, 0xbb, 0x16, 0xab, 0x0b, 0xbd, 0xe2, 0x14, 0x86, 0x3c,
    0xe2, 0x14, 0x86, 0xbd, 0x22, 0x78, 0x5f, 0xbc, 0x16, 0xab,
    0x8b, 0xbd, 0xe2, 0x14, 0x06, 0xbc, 0x82, 0xc6, 0x32, 0x3d,
    0xea, 0xf2, 0x3d, 0x3d, 0x22, 0x78, 0x5f, 0x3c, 0x22, 0x78,
    0x5f, 0xbd, 0xc7, 0x49, 0x83, 0xbd, 0xe6, 0x03, 0xa2, 0xbd,
    0xee, 0xe1, 0x59, 0x3d, 0xe6, 0x03, 0x22, 0xbd, 0xf3, 0xd0,
    0x75, 0x3d, 0x16, 0xab, 0x8b, 0xbd, 0x86, 0xb5, 0x4e, 0x3d,
    0x1e, 0x89, 0x43, 0x3d, 0x82, 0xc6, 0x32, 0x3c, 0x1a, 0x9a,
    0x27, 0xbd, 0x52, 0x1f, 0xc9, 0xbd, 0xad, 0x7e, 0x80, 0xbd,
    0x52, 0x1f, 0x49, 0xbc, 0xd4, 0x16, 0xd7, 0xbd, 0x82, 0xc6,
    0xb2, 0xba, 0x86, 0xb5, 0x4e, 0xbd, 0xd4, 0x16, 0xd7, 0x3d,
    0xb2, 0x6d, 0x9c, 0x3c, 0xb2, 0x6d, 0x9c, 0xbc, 0xba, 0x4b,
    0xd4, 0x3c, 0xe2, 0x14, 0x86, 0xbb, 0x52, 0x1f, 0x49, 0x3d,
    0x1a, 0x9a, 0xa7, 0x3d, 0x1a, 0x9a, 0xa7, 0xbd, 0xe2, 0x14,
    0x06, 0xbc, 0xa3, 0x10, 0x0d, 0xbe, 0x82, 0xc6, 0x32, 0x3c,
    0xba, 0x4b, 0x54, 0xbd, 0x82, 0xc6, 0xb2, 0x3c, 0x27, 0x67,
    0x7b, 0xbd, 0xb6, 0x5c, 0x38, 0xbd, 0xb2, 0x6d, 0x1c, 0xbc,
    0x52, 0x1f, 0x49, 0x3d, 0x6c, 0xea, 0xcb, 0xbd, 0x4e, 0x30,
    0x2d, 0xbd, 0xea, 0xf2, 0xbd, 0xbc, 0x68, 0xfb, 0xaf, 0x3d,
    0x27, 0x67, 0x7b, 0xbd, 0xfc, 0xdf, 0x88, 0xbd, 0x9c, 0x91,
    0xb5, 0xbd, 0x30, 0x76, 0x8e, 0xbd, 0x04, 0xbe, 0xc0, 0xbd,
    0x30, 0x76, 0x0e, 0xbe, 0x82, 0xc6, 0x32, 0x3c, 0x00, 0x00,
    0x00, 0x00, 0x52, 0x1f, 0xc9, 0x3c, 0x1e, 0x89, 0x43, 0x3d,
    0x8b, 0xa4, 0x6a, 0xbd, 0x30, 0x76, 0x0e, 0xbe, 0xd4, 0x16,
    0xd7, 0xbd, 0x7e, 0xd7, 0x16, 0xbd, 0xba, 0x4b, 0xd4, 0x3c,
    0xad, 0x7e, 0x80, 0xbd, 0xa0, 0x80, 0xd1, 0xbd, 0x22, 0x78,
    0x5f, 0xbd, 0x00, 0xcf, 0xa4, 0xbd, 0x1a, 0x9a, 0xa7, 0x3d,
    0xbf, 0x3a, 0xf0, 0xbd, 0x6f, 0x7a, 0x07, 0xbe, 0xad, 0x7e,
    0x80, 0xbd, 0x89, 0x45, 0x0a, 0xbe, 0x22, 0x78, 0xdf, 0xbc,
    0x1e, 0x89, 0x43, 0xbd, 0xf3, 0xd0, 0x75, 0xbd, 0x64, 0x0c,
    0x94, 0xbd, 0x00, 0xcf, 0xa4, 0xbd, 0x64, 0x0c, 0x94, 0x3d,
    0x16, 0xab, 0x8b, 0xbd, 0x1e, 0x89, 0x43, 0xbd, 0x82, 0xc6,
    0xb2, 0xbc, 0x52, 0x1f, 0xc9, 0xbc, 0x16, 0xab, 0x0b, 0x3d,
    0xad, 0x7e, 0x00, 0xbe, 0xf5, 0x60, 0x31, 0xbe, 0x1a, 0x9a,
    0xa7, 0x3c, 0xe2, 0x14, 0x86, 0xbd, 0x22, 0x78, 0x5f, 0xbc,
    0x8b, 0xa4, 0x6a, 0x3d, 0xad, 0x7e, 0x80, 0xbd, 0xb6, 0x5c,
    0xb8, 0xbd, 0x16, 0xab, 0x0b, 0xbd, 0x82, 0xc6, 0xb2, 0x3b,
    0x8d, 0x34, 0x26, 0xbe, 0xad, 0x7e, 0x80, 0xbd, 0x64, 0x0c,
    0x94, 0xbd, 0xad, 0x7e, 0x80, 0xbd, 0xb2, 0x6d, 0x1c, 0xbd,
    0x13, 0xd0, 0x8f, 0x3d, 0xc0, 0x71, 0x3c, 0x3d, 0x8e, 0xda,
    0x0a, 0xbc, 0x78, 0xfe, 0x72, 0x3d, 0xfd, 0xf3, 0xf7, 0x3c,
    0x27, 0xa6, 0x23, 0x3d, 0x00, 0x00, 0x00, 0x00, 0xea, 0x20,
    0xa6, 0xbd, 0xdf, 0x32, 0x5a, 0xbc, 0xdf, 0x32, 0x5a, 0x3c,
    0xa2, 0xb0, 0x1e, 0xbb, 0xf3, 0x08, 0x6e, 0x3c, 0xa2, 0xb0,
    0x1e, 0xbb, 0xc0, 0x71, 0x3c, 0x3d, 0xa2, 0xb0, 0x9e, 0x3d,
    0xcb, 0x5f, 0x88, 0xbd, 0x46, 0x6a, 0x03, 0xbe, 0x13, 0xd0,
    0x8f, 0xbd, 0xf3, 0x08, 0x6e, 0x3d, 0xfd, 0xf3, 0xf7, 0x3c,
    0xc0, 0x71, 0xbc, 0x3c, 0x1d, 0xbb, 0x19, 0x3d, 0x8e, 0xda,
    0x0a, 0x3c, 0xf3, 0x08, 0x6e, 0xbc, 0x84, 0xef, 0x00, 0x3d,
    0x8e, 0xda, 0x0a, 0xbc, 0xc0, 0x71, 0xbc, 0x3c, 0x74, 0x0d,
    0x11, 0xbe, 0xa2, 0xb0, 0x1e, 0xbd, 0xb6, 0x86, 0xb2, 0xbd,
    0xa2, 0xb0, 0x1e, 0xbd, 0xa2, 0xb0, 0x1e, 0xbb, 0xf3, 0x08,
    0xee, 0xbc, 0x8e, 0xda, 0x0a, 0xbd, 0x8e, 0xda, 0x0a, 0x3d,
    0xb6, 0x86, 0xb2, 0xbc, 0xe9, 0x1d, 0xe4, 0xbd, 0x84, 0xef,
    0x80, 0xbd, 0x65, 0x2b, 0xa1, 0xbd, 0x82, 0xe9, 0x7c, 0xbd,
    0x98, 0xc5, 0x94, 0x3d, 0xca, 0x5c, 0xc6, 0x3b, 0x98, 0xc5,
    0x14, 0xbd, 0x8e, 0xda, 0x0a, 0x3d, 0xdf, 0x32, 0xda, 0x3c,
    0xf4, 0x0b, 0xb0, 0xbd, 0xb6, 0x86, 0x32, 0xbd, 0x8e, 0xda,
    0x8a, 0xbc, 0xd5, 0x47, 0xd0, 0xbc, 0xc0, 0x71, 0xbc, 0x3c,
    0x98, 0xc5, 0x94, 0xbc, 0x8e, 0xda, 0x8a, 0x3d, 0xdf, 0x32,
    0xda, 0x3c, 0xd5, 0x47, 0x50, 0x3d, 0xb6, 0x86, 0x32, 0xbc,
    0x8e, 0xda, 0x8a, 0xbd, 0xa2, 0xb0, 0x9e, 0x3d, 0x98, 0xc5,
    0x94, 0xbc, 0xd5, 0x47, 0x50, 0xbd, 0xca, 0x5c, 0x46, 0xbd,
    0xf3, 0x08, 0x6e, 0xbc, 0xb6, 0x86, 0x32, 0x3c, 0x6f, 0x16,
    0xab, 0x3d, 0x50, 0x52, 0x4b, 0xbd, 0x78, 0xfe, 0xf2, 0x3d,
    0xfd, 0xf3, 0x77, 0xbd, 0x50, 0x52, 0x4b, 0xbd, 0xa2, 0xb0,
    0x9e, 0xbc, 0xe9, 0x1d, 0x64, 0xbd, 0x13, 0xd0, 0x0f, 0x3d,
    0xb6, 0x86, 0x32, 0x3d, 0x98, 0xc5, 0x94, 0xbc, 0xb6, 0x86,
    0x32, 0x3c, 0x8e, 0xda, 0x0a, 0xbc, 0xa2, 0xb0, 0x9e, 0xbc,
    0xe9, 0x1d, 0xe4, 0x3c, 0x1d, 0xbb, 0x19, 0x3d, 0x78, 0xfe,
    0xf2, 0xbd, 0xf3, 0x08, 0x6e, 0x3b, 0xca, 0x5c, 0xc6, 0x3c,
    0xe9, 0x1d, 0xe4, 0xbc, 0xdf, 0x32, 0x5a, 0xbd, 0xb6, 0x86,
    0x32, 0xbd, 0xca, 0x5c, 0x46, 0x3d, 0xc0, 0x71, 0xbc, 0x3d,
    0x8e, 0xda, 0x8a, 0x3d, 0x46, 0x6a, 0x83, 0xbd, 0xfd, 0xf3,
    0xf7, 0xbd, 0x27, 0xa6, 0x23, 0x3d, 0xb6, 0x86, 0x32, 0xbc,
    0xca, 0x5c, 0x46, 0xbd, 0xa2, 0xb0, 0x9e, 0xba, 0xdf, 0x32,
    0x5a, 0xbd, 0xa2, 0xb0, 0x9e, 0xbb, 0x65, 0x2b, 0xa1, 0x3d,
    0xa2, 0xb0, 0x1e, 0x3d, 0xd5, 0x47, 0xd0, 0x3c, 0x8e, 0xda,
    0x8a, 0x3c, 0xcb, 0x5f, 0x88, 0x3d, 0xc0, 0x71, 0xbc, 0xbc,
    0xa2, 0xb0, 0x1e, 0x3c, 0x64, 0x28, 0x5f, 0x3d, 0xf3, 0x08,
    0x6e, 0xbd, 0xc0, 0x71, 0x3c, 0xbd, 0x45, 0x67, 0x41, 0xbd,
    0x98, 0xc5, 0x94, 0x3c, 0xab, 0x98, 0xe6, 0x3d, 0xac, 0x9b,
    0x28, 0xbd, 0xca, 0x5c, 0xc6, 0x3b, 0xfd, 0xf3, 0xf7, 0xbc,
    0xd5, 0x47, 0xd0, 0x3d, 0x84, 0xef, 0x00, 0x3d, 0x84, 0xef,
    0x80, 0xbc, 0xca, 0x5c, 0x46, 0xbd, 0xca, 0x5c, 0x46, 0x3c,
    0x3b, 0x7c, 0x37, 0x3d, 0xf4, 0x0b, 0xb0, 0x3d, 0x78, 0xfe,
    0x72, 0xbd, 0x3b, 0x7c, 0x37, 0xbd, 0x82, 0xe9, 0x7c, 0x3d,
    0xf3, 0x08, 0x6e, 0xbb, 0xb6, 0x86, 0x32, 0xbc, 0xca, 0x5c,
    0xc6, 0x3b, 0x98, 0xc5, 0x94, 0xbc, 0x46, 0x6a, 0x83, 0xbd,
    0x45, 0x64, 0xff, 0x3d, 0xea, 0x20, 0xa6, 0x3d, 0xdf, 0x32,
    0xda, 0xbc, 0xa2, 0xb0, 0x9e, 0xbc, 0x8e, 0xda, 0x0a, 0xbc,
    0x3b, 0x7c, 0x37, 0xbd, 0x31, 0x91, 0x2d, 0x3d, 0x1d, 0xbb,
    0x99, 0x3d, 0x13, 0xd0, 0x0f, 0xbd, 0x3b, 0x7c, 0xb7, 0xbd,
    0xdf, 0x32, 0xda, 0xbc, 0xd5, 0x47, 0xd0, 0x3d, 0xb6, 0x86,
    0xb2, 0x3c, 0x98, 0xc5, 0x94, 0x3c, 0x09, 0xe5, 0x05, 0xbd,
    0xf3, 0x08, 0x6e, 0x3b, 0xd5, 0x47, 0xd0, 0x3d, 0x8e, 0xda,
    0x0a, 0xbc, 0x78, 0xfe, 0x72, 0x3d, 0xfd, 0xf3, 0xf7, 0x3c,
    0xf4, 0x0b, 0xb0, 0x3d, 0x50, 0x52, 0x4b, 0x3d, 0xfd, 0xf3,
    0xf7, 0x3c, 0x1c, 0xb8, 0xd7, 0x3d, 0xac, 0x9b, 0xa8, 0xbc,
    0x27, 0xa6, 0xa3, 0xbd, 0xe9, 0x1d, 0x64, 0x3d, 0xc0, 0x71,
    0xbc, 0xbc, 0x82, 0xe9, 0x7c, 0xbd, 0x64, 0x28, 0x5f, 0xbd,
    0x3b, 0x7c, 0xb7, 0x3d, 0xd5, 0x47, 0xd0, 0x3d, 0x98, 0xc5,
    0x94, 0xbc, 0xa2, 0xb0, 0x9e, 0xbd, 0xa2, 0xb0, 0x1e, 0x3c,
    0x8e, 0xda, 0x8a, 0xbc, 0x84, 0xef, 0x80, 0xbc, 0x50, 0x52,
    0x4b, 0x3d, 0xd5, 0x47, 0x50, 0x3d, 0xac, 0x9b, 0xa8, 0x3c,
    0x64, 0x28, 0x5f, 0xbd, 0xe9, 0x1d, 0x64, 0xbd, 0xdf, 0x32,
    0x5a, 0x3d, 0x8e, 0xda, 0x8a, 0x3c, 0xb6, 0x86, 0x32, 0xbc,
    0xcb, 0x5f, 0x88, 0xbd, 0xa2, 0xb0, 0x9e, 0xba, 0x84, 0xef,
    0x80, 0x3c, 0x65, 0x2b, 0xa1, 0xbd, 0xf4, 0x0b, 0xb0, 0xbd,
    0x82, 0xe9, 0x7c, 0x3d, 0xd5, 0x4a, 0x92, 0x3d, 0xdf, 0x32,
    0xda, 0x3d, 0xb6, 0x86, 0xb2, 0x3c, 0x65, 0x2b, 0xa1, 0xbd,
    0x13, 0xd0, 0x0f, 0xbd, 0x31, 0x91, 0x2d, 0x3d, 0xac, 0x9b,
    0x28, 0xbd, 0x50, 0x52, 0x4b, 0xbd, 0xab, 0x98, 0xe6, 0xbd,
    0xb6, 0x86, 0xb2, 0x3d, 0x41, 0x73, 0x1d, 0x3e, 0xf3, 0x08,
    0x6e, 0x3c, 0x8e, 0xda, 0x0a, 0xbc, 0xa2, 0xb0, 0x1e, 0xbd,
    0x3b, 0x7c, 0x37, 0x3d, 0x8e, 0xda, 0x8a, 0x3d, 0xb6, 0x86,
    0xb2, 0x3c, 0xb6, 0x86, 0x32, 0x3d, 0xb6, 0x86, 0x32, 0xbc,
    0x8e, 0xda, 0x8a, 0x3d, 0xb6, 0x86, 0xb2, 0x3d, 0x13, 0xd0,
    0x0f, 0x3e, 0xc0, 0x71, 0xbc, 0x3c, 0xe9, 0x1d, 0xe4, 0x3c,
    0x78, 0xfe, 0x72, 0xbd, 0xdf, 0x35, 0x9c, 0x3d, 0x83, 0xec,
    0xbe, 0xbd, 0x98, 0xc5, 0x94, 0xbc, 0x3b, 0x79, 0xf5, 0xbd,
    0x84, 0xef, 0x00, 0x3d, 0x09, 0xe5, 0x85, 0xbd, 0xa2, 0xb0,
    0x9e, 0x3c, 0xa2, 0xb0, 0x1e, 0x3c, 0x26, 0xa3, 0xe1, 0xbd,
    0xdf, 0x32, 0xda, 0x3c, 0xdf, 0x35, 0x9c, 0xbd, 0x98, 0xc5,
    0x94, 0x3d, 0xa2, 0xb0, 0x9e, 0xbc, 0xa2, 0xb0, 0x1e, 0xbb,
    0xd5, 0x47, 0xd0, 0x3c, 0xf3, 0x08, 0xee, 0xbb, 0xa2, 0xb0,
    0x9e, 0xba, 0xac, 0x9b, 0xa8, 0x3c, 0xf3, 0x08, 0x6e, 0x3b,
    0x1c, 0xb8, 0xd7, 0xbd, 0xac, 0x9b, 0x28, 0xbd, 0xa2, 0xb0,
    0x9e, 0x3b, 0xdf, 0x35, 0x9c, 0xbd, 0x8e, 0xda, 0x0a, 0x3d,
    0xb6, 0x86, 0x32, 0xbd, 0xac, 0x9b, 0xa8, 0x3c, 0xc0, 0x71,
    0xbc, 0x3c, 0xb6, 0x86, 0xb2, 0x3c, 0x98, 0xc5, 0x14, 0xbd,
    0x1d, 0xbb, 0x99, 0xbd, 0x98, 0xc5, 0x94, 0xbc, 0x5a, 0x3d,
    0x55, 0x3d, 0xb6, 0x86, 0xb2, 0x3c, 0x12, 0xcd, 0xcd, 0xbd,
    0x8e, 0xda, 0x8a, 0x3d, 0x50, 0x55, 0x0d, 0x3e, 0xd5, 0x47,
    0xd0, 0x3d, 0x5a, 0x3d, 0x55, 0x3d, 0xf3, 0x08, 0x6e, 0xbd,
    0xb6, 0x86, 0x32, 0xbd, 0x6e, 0x13, 0xe9, 0x3d, 0x13, 0xd0,
    0x0f, 0x3d, 0x50, 0x52, 0x4b, 0x3d, 0x13, 0xd0, 0x8f, 0xbd,
    0xb6, 0x86, 0xb2, 0x3d, 0x3b, 0x79, 0xf5, 0x3d, 0x13, 0xd0,
    0x0f, 0x3d, 0x8e, 0xda, 0x0a, 0x3c, 0x37, 0x88, 0x13, 0xbe,
    0xb6, 0xb0, 0x62, 0xbd, 0x98, 0xe8, 0x3c, 0xbd, 0x8f, 0xcd,
    0xf1, 0xbb, 0xcf, 0x58, 0x02, 0xbe, 0x8f, 0xcd, 0xf1, 0x3a,
    0xdd, 0x93, 0x53, 0x3c, 0x8f, 0xcd, 0x71, 0xbb, 0x23, 0x3f,
    0xea, 0xbd, 0xfb, 0x5b, 0xf9, 0xbd, 0xdd, 0x93, 0x53, 0x3c,
    0x52, 0x3d, 0xa6, 0x3d, 0x79, 0x20, 0x97, 0x3d, 0x8f, 0xcd,
    0x71, 0xbc, 0x34, 0x75, 0x00, 0x3d, 0x0d, 0x92, 0x0f, 0x3e,
    0xdd, 0x93, 0xd3, 0x3c, 0xe6, 0xae, 0x9e, 0xbd, 0x32, 0x23,
    0xfd, 0xbd, 0x8f, 0xcd, 0xf1, 0xbb, 0xe6, 0xae, 0x1e, 0xbd,
    0x4a, 0x22, 0x5b, 0xbd, 0xbf, 0xcb, 0x2d, 0x3d, 0xbf, 0xcb,
    0xad, 0xbd, 0xd7, 0xca, 0x8b, 0xbd, 0x4a, 0x22, 0xdb, 0x3d,
    0x52, 0x3d, 0xa6, 0xbc, 0x2b, 0x5a, 0xb5, 0xbb, 0xc5, 0x94,
    0xf5, 0xbd, 0x52, 0x3d, 0xa6, 0xbd, 0x2b, 0x5a, 0x35, 0xbc,
    0x2b, 0x5a, 0xb5, 0x3c, 0x8f, 0xcd, 0x71, 0x3b, 0xdd, 0x93,
    0xd3, 0xbd, 0x8f, 0xcd, 0xf1, 0xbb, 0x6a, 0x3c, 0x84, 0x3d,
    0x98, 0xe8, 0x3c, 0xbd, 0xdd, 0x93, 0xd3, 0xbd, 0xa7, 0xcc,
    0xcf, 0xbd, 0x13, 0x5b, 0xd7, 0xbd, 0x32, 0x23, 0xfd, 0xbd,
    0xa0, 0x03, 0x88, 0x3d, 0x52, 0x3d, 0x26, 0xbd, 0x2b, 0x5a,
    0x35, 0x3d, 0x34, 0x75, 0x00, 0x3d, 0x52, 0x3d, 0x26, 0x3d,
    0x2b, 0x5a, 0xb5, 0xbb, 0x1c, 0x76, 0xa2, 0xbd, 0x4a, 0x22,
    0x5b, 0xbd, 0x2b, 0x5a, 0xb5, 0x3b, 0x2b, 0x5a, 0xb5, 0xbc,
    0xfb, 0x5b, 0x79, 0xbd, 0xb0, 0xe7, 0x9a, 0x3d, 0x8f, 0xcd,
    0x71, 0x3c, 0x8f, 0xcd, 0x71, 0xbc, 0xf5, 0x92, 0xb1, 0x3d,
    0x52, 0x3d, 0xa6, 0xbc, 0x79, 0x20, 0x17, 0xbd, 0xbf, 0xcb,
    0x2d, 0xbd, 0x2b, 0x5a, 0xb5, 0xbd, 0x2b, 0x5a, 0xb5, 0x3c,
    0x98, 0xe8, 0xbc, 0x3d, 0x8f, 0xcd, 0x71, 0x3c, 0x23, 0x3f,
    0x6a, 0xbd, 0xbf, 0xcb, 0x2d, 0x3d, 0x8f, 0xcd, 0xf1, 0xbc,
    0xb0, 0xe7, 0x9a, 0xbd, 0xfb, 0x5b, 0x79, 0xbd, 0x4a, 0x22,
    0x5b, 0xbd, 0x52, 0x3d, 0xa6, 0x3c, 0xa0, 0x03, 0x08, 0x3d,
    0xc5, 0x94, 0xf5, 0xbd, 0xdd, 0x93, 0xd3, 0x3c, 0x79, 0x20,
    0x17, 0x3d, 0x8f, 0xcd, 0xf1, 0xbc, 0x2b, 0x5a, 0xb5, 0x3c,
    0xb6, 0xb0, 0xe2, 0xbc, 0x72, 0xae, 0x0d, 0xbe, 0x3c, 0xe7,
    0x09, 0xbe, 0x8f, 0xcd, 0xf1, 0x3c, 0x79, 0x20, 0x17, 0x3d,
    0xdd, 0x93, 0xd3, 0x3c, 0xbf, 0xcb, 0xad, 0x3d, 0x6a, 0x3c,
    0x84, 0xbd, 0x04, 0x77, 0x44, 0x3d, 0xa0, 0x03, 0x88, 0x3d,
    0xb6, 0xb0, 0x62, 0xbd, 0x04, 0x77, 0xc4, 0xbc, 0x04, 0x77,
    0xc4, 0xbd, 0x2b, 0x5a, 0x35, 0x3c, 0x0d, 0x92, 0x8f, 0xbd,
    0x79, 0x20, 0x17, 0xbc, 0x2b, 0x5a, 0xb5, 0x3b, 0x2b, 0x5a,
    0xb5, 0x3b, 0xa0, 0x03, 0x08, 0xbd, 0x79, 0x20, 0x17, 0xbd,
    0xdd, 0x93, 0x53, 0xbc, 0x98, 0xe8, 0x3c, 0x3d, 0x0d, 0x92,
    0x0f, 0x3d, 0x61, 0x21, 0xb9, 0x3d, 0x79, 0x20, 0x97, 0x3c,
    0x34, 0x75, 0x00, 0xbd, 0x79, 0x20, 0x97, 0x3d, 0x52, 0x3d,
    0xa6, 0x3c, 0x79, 0x20, 0x97, 0x3c, 0x71, 0x05, 0x4c, 0xbd,
    0x61, 0x21, 0xb9, 0x3d, 0x52, 0x3d, 0x26, 0x3d, 0x3a, 0x3e,
    0xc8, 0xbd, 0x04, 0x77, 0xc4, 0xbc, 0x79, 0x20, 0x17, 0xbd,
    0xa0, 0x03, 0x08, 0x3d, 0xe6, 0xae, 0x1e, 0x3d, 0x4a, 0x22,
    0x5b, 0x3d, 0x04, 0x77, 0x44, 0x3d, 0x23, 0x3f, 0x6a, 0x3d,
    0x79, 0x20, 0x17, 0x3d, 0x23, 0x3f, 0x6a, 0x3d, 0x04, 0x77,
    0xc4, 0xbc, 0xa0, 0x03, 0x88, 0xbc, 0x1c, 0x76, 0xa2, 0x3d,
    0x43, 0x59, 0x93, 0x3d, 0x8f, 0xcd, 0xf1, 0xbb, 0xe6, 0xae,
    0x9e, 0x3d, 0x34, 0x75, 0x00, 0xbd, 0xdd, 0x93, 0x53, 0xbc,
    0x52, 0x3d, 0xa6, 0x3d, 0x04, 0x77, 0x44, 0x3d, 0x8f, 0xcd,
    0x71, 0x3b, 0x34, 0x75, 0x80, 0x3d, 0x79, 0x20, 0x97, 0xbd,
    0xa0, 0x03, 0x88, 0x3c, 0xa7, 0xcc, 0xcf, 0x3d, 0xa0, 0x03,
    0x88, 0x3c, 0x79, 0x20, 0x97, 0xbc, 0xf5, 0x92, 0xb1, 0x3d,
    0x04, 0x77, 0x44, 0x3d, 0x80, 0xe9, 0xde, 0x3d, 0x04, 0x77,
    0xc4, 0x3d, 0x2b, 0x5a, 0xb5, 0x3c, 0x2b, 0x5a, 0xb5, 0x3b,
    0xd7, 0xca, 0x8b, 0x3d, 0xb6, 0xb0, 0xe2, 0x3d, 0x71, 0x05,
    0x4c, 0x3d, 0x34, 0x75, 0x00, 0x3e, 0x8f, 0xcd, 0xf1, 0x3b,
    0xdd, 0x93, 0xd3, 0x3d, 0x69, 0x93, 0x42, 0x3e, 0x2b, 0x5a,
    0x35, 0x3d, 0x1c, 0x76, 0xa2, 0x3d, 0x2b, 0x5a, 0xb5, 0xbb,
    0x2b, 0x5a, 0x35, 0x3c, 0x23, 0x3f, 0x6a, 0x3d, 0x79, 0x20,
    0x17, 0xbc, 0x71, 0x05, 0x4c, 0x3d, 0x52, 0x3d, 0xa6, 0xbc,
    0x52, 0x3d, 0xa6, 0xbc, 0xb6, 0xb0, 0xe2, 0x3c, 0xce, 0xaf,
    0xc0, 0x3d, 0x52, 0x3d, 0xa6, 0x3c, 0xb6, 0xb0, 0x62, 0xbd,
    0x98, 0xe8, 0xbc, 0x3d, 0xb6, 0xb0, 0xe2, 0xbc, 0x23, 0x3f,
    0x6a, 0xbd, 0x04, 0x77, 0x44, 0x3d, 0xfb, 0x5b, 0x79, 0xbd,
    0x79, 0x20, 0x17, 0x3d, 0xec, 0x77, 0xe6, 0x3d, 0x04, 0x77,
    0x44, 0x3d, 0xdd, 0x93, 0xd3, 0xbc, 0x8f, 0xcd, 0xf1, 0x3b,
    0x71, 0x05, 0x4c, 0x3d, 0x8f, 0xcd, 0x71, 0x3b, 0x8f, 0xcd,
    0xf1, 0xbc, 0xa0, 0x03, 0x08, 0x3d, 0x6a, 0x3c, 0x84, 0xbd,
    0x04, 0x77, 0xc4, 0x3d, 0x24, 0xe8, 0x2b, 0x3e, 0xcf, 0x58,
    0x02, 0x3e, 0xfb, 0x5b, 0x79, 0x3d, 0x79, 0x20, 0x97, 0xbd,
    0x8f, 0xcd, 0x71, 0x3b, 0x3c, 0xe7, 0x09, 0x3e, 0xe6, 0xae,
    0x9e, 0x3d, 0x79, 0x20, 0x17, 0x3c, 0x04, 0x77, 0xc4, 0xbd,
    0xce, 0xaf, 0xc0, 0x3d, 0x9f, 0x5a, 0x46, 0x3e, 0x81, 0x92,
    0x20, 0x3e, 0x34, 0x75, 0x00, 0x3d, 0x71, 0x05, 0xcc, 0xbd,
    0x8f, 0xcd, 0xf1, 0xbc, 0x33, 0xcc, 0x3e, 0x3e, 0x8f, 0xcd,
    0x71, 0x3d, 0x79, 0x20, 0x97, 0x3d, 0x4a, 0x22, 0xdb, 0xbd,
    0xa7, 0xcc, 0xcf, 0x3d, 0xf4, 0xe9, 0x6f, 0x3e, 0x89, 0x04,
    0x2a, 0x3e, 0x72, 0xae, 0x0d, 0x3e, 0x4a, 0x22, 0x5b, 0xbd,
    0x4a, 0x22, 0xdb, 0xbd, 0x71, 0x05, 0x4c, 0xbd, 0x34, 0x75,
    0x80, 0xbd, 0xb6, 0xb0, 0xe2, 0x3c, 0x2b, 0x5a, 0xb5, 0x3b,
    0xdd, 0x93, 0x53, 0x3d, 0xe6, 0xae, 0x9e, 0xbd, 0x2b, 0x5a,
    0x35, 0xbc, 0x04, 0x77, 0xc4, 0x3c, 0x23, 0x3f, 0x6a, 0xbd,
    0x72, 0xae, 0x0d, 0xbe, 0x4a, 0x22, 0x5b, 0x3d, 0x98, 0xe8,
    0x3c, 0xbd, 0xf5, 0x92, 0xb1, 0xbd, 0x43, 0x59, 0x93, 0xbd,
    0x79, 0x20, 0x17, 0x3c, 0xfb, 0x5b, 0x79, 0xbd, 0x04, 0x77,
    0xc4, 0xbc, 0xdd, 0x93, 0x53, 0xbd, 0x23, 0x3f, 0x6a, 0xbd,
    0xf5, 0x92, 0x31, 0xbe, 0x0d, 0x92, 0x0f, 0x3d, 0x79, 0x20,
    0x17, 0xbd, 0x79, 0x20, 0x17, 0x3c, 0x2b, 0x5a, 0xb5, 0xbd,
    0xdd, 0x93, 0xd3, 0xbc, 0xb6, 0xb0, 0xe2, 0xbc, 0x23, 0x3f,
    0x6a, 0x3d, 0x43, 0x59, 0x93, 0x3d, 0x98, 0xe8, 0x3c, 0xbe,
    0xdd, 0x93, 0xd3, 0xbd, 0x61, 0x21, 0xb9, 0x3d, 0xa0, 0x03,
    0x08, 0x3d, 0x04, 0x77, 0x44, 0x3d, 0x98, 0xe8, 0xbc, 0xbd,
    0x8f, 0xcd, 0xf1, 0x3c, 0x61, 0x21, 0xb9, 0x3d, 0x98, 0xe8,
    0x3c, 0x3e, 0xfb, 0x5b, 0x79, 0x3d, 0x59, 0x06, 0xee, 0xbd,
    0x61, 0x21, 0xb9, 0xbd, 0x98, 0xe8, 0xbc, 0x3d, 0xdd, 0x93,
    0x53, 0x3d, 0xa0, 0x03, 0x88, 0x3d, 0xce, 0xaf, 0xc0, 0xbd,
    0x8f, 0xcd, 0x71, 0x3c, 0xf5, 0x92, 0xb1, 0x3d, 0x43, 0x59,
    0x13, 0x3e, 0x79, 0x20, 0x17, 0xbc, 0x89, 0x04, 0x2a, 0xbe,
    0xfc, 0xb5, 0xc7, 0x3d, 0xc4, 0x1b, 0x4d, 0x3d, 0x77, 0x7e,
    0xed, 0x3c, 0xe6, 0xb2, 0x62, 0x3d, 0xed, 0xfc, 0xfa, 0x3d,
    0x26, 0xbc, 0x91, 0xbd, 0x55, 0xe7, 0xd7, 0xbd, 0xda, 0x1e,
    0xb2, 0xbd, 0xd3, 0xd4, 0x99, 0xbd, 0x48, 0x53, 0x27, 0x3d,
    0xcd, 0x8a, 0x81, 0xbc, 0xcd, 0x8a, 0x81, 0xbc, 0x5e, 0x56,
    0x0c, 0x3d, 0x48, 0x53, 0x27, 0xbd, 0xd3, 0xd4, 0x99, 0x3d,
    0xe6, 0xb2, 0xe2, 0xbc, 0xda, 0x1e, 0xb2, 0xbd, 0x33, 0x50,
    0x42, 0xbd, 0x80, 0xed, 0x21, 0x3d, 0xaf, 0x18, 0x68, 0xbd,
    0xd1, 0xaf, 0x7d, 0x3d, 0xd1, 0xaf, 0x7d, 0xbd, 0x11, 0xb9,
    0xac, 0x3a, 0x11, 0xb9, 0xac, 0x3a, 0x33, 0x50, 0xc2, 0xbc,
    0xcd, 0x8a, 0x01, 0xbd, 0x55, 0xe7, 0x57, 0x3c, 0xed, 0xfc,
    0xfa, 0xbd, 0x55, 0xe7, 0xd7, 0xbd, 0xef, 0x21, 0x97, 0xbc,
    0x11, 0xb9, 0x2c, 0x3b, 0xef, 0x21, 0x17, 0x3d, 0xc4, 0x1b,
    0xcd, 0x3c, 0x48, 0x53, 0x27, 0x3d, 0x11, 0xb9, 0xac, 0x3d,
    0x3a, 0x9a, 0xda, 0xbd, 0xcd, 0x8a, 0x01, 0x3c, 0x45, 0x2e,
    0x1b, 0xbe, 0xef, 0x21, 0x97, 0xbc, 0xef, 0x21, 0x97, 0xbc,
    0x48, 0x53, 0x27, 0xbd, 0x33, 0x50, 0x42, 0x3d, 0xcd, 0x8a,
    0x01, 0xbc, 0x26, 0xbc, 0x11, 0xbd, 0x55, 0xe7, 0x57, 0xbc,
    0xef, 0x21, 0x97, 0x3c, 0x26, 0xbc, 0x11, 0xbd, 0x6b, 0xea,
    0xbc, 0xbd, 0x11, 0xb9, 0xac, 0xbc, 0xcd, 0x8a, 0x01, 0xbd,
    0x11, 0xb9, 0x2c, 0xbc, 0xef, 0x21, 0x97, 0x3d, 0x77, 0x7e,
    0xed, 0xbc, 0x5e, 0x56, 0x8c, 0x3c, 0x4f, 0x9d, 0xbf, 0x3d,
    0x80, 0xed, 0x21, 0xbd, 0xef, 0x21, 0x97, 0x3c, 0x80, 0xed,
    0xa1, 0x3c, 0xcd, 0x8a, 0x01, 0x3c, 0xef, 0x21, 0x97, 0x3c,
    0xc4, 0x1b, 0x4d, 0x3d, 0xfc, 0xb5, 0x47, 0x3d, 0x11, 0xb9,
    0xac, 0x3b, 0x55, 0xe7, 0x57, 0x3d, 0x95, 0xf0, 0x06, 0x3d,
    0x7a, 0xa3, 0x89, 0xbd, 0x5e, 0x56, 0x0c, 0xbd, 0x7a, 0xa3,
    0x89, 0xbd, 0x95, 0xf0, 0x86, 0x3d, 0x8d, 0x81, 0x52, 0x3d,
    0x8d, 0x81, 0x52, 0xbd, 0x0b, 0x6f, 0x94, 0xbd, 0x80, 0xed,
    0xa1, 0xbd, 0x11, 0xb9, 0xac, 0xba, 0xe6, 0xb2, 0x62, 0xbd,
    0x00, 0x00, 0x00, 0x00, 0x11, 0xb9, 0x2c, 0x3c, 0x5e, 0x56,
    0x0c, 0xbe, 0x80, 0xed, 0xa1, 0x3d, 0x11, 0xb9, 0x2c, 0x3b,
    0xe6, 0xb2, 0x62, 0x3d, 0x8d, 0x81, 0x52, 0x3d, 0x33, 0x50,
    0x42, 0xbd, 0x26, 0xbc, 0x11, 0xbd, 0xef, 0x21, 0x17, 0x3c,
    0xbe, 0xd1, 0xb4, 0x3d, 0xb7, 0x87, 0x9c, 0x3d, 0x9f, 0x5f,
    0x2b, 0xbe, 0xcd, 0x8a, 0x81, 0x3c, 0xa2, 0x84, 0x37, 0xbd,
    0x77, 0x7e, 0xed, 0xbc, 0x77, 0x7e, 0xed, 0x3d, 0xcd, 0x8a,
    0x01, 0xbd, 0x33, 0x50, 0x42, 0x3d, 0xbe, 0xd1, 0xb4, 0x3d,
    0x33, 0x50, 0xc2, 0x3d, 0xb1, 0x3d, 0x84, 0x3d, 0xcd, 0x8a,
    0x81, 0xbc, 0x08, 0x4a, 0xf8, 0x3c, 0x5e, 0x56, 0x0c, 0x3d,
    0xcd, 0x8a, 0x01, 0xbc, 0x08, 0x4a, 0xf8, 0x3c, 0x55, 0xe7,
    0x57, 0x3d, 0x6b, 0xea, 0x3c, 0x3d, 0x0b, 0x6f, 0x94, 0x3d,
    0xe6, 0xb2, 0xe2, 0xbc, 0x11, 0xb9, 0xac, 0xbc, 0xb7, 0x87,
    0x9c, 0xbd, 0x33, 0x50, 0x42, 0x3c, 0x80, 0xed, 0xa1, 0xbc,
    0x08, 0x4a, 0x78, 0x3d, 0x95, 0xf0, 0x86, 0x3d, 0x40, 0xe4,
    0x72, 0x3d, 0xfc, 0xb5, 0x47, 0xbd, 0x5e, 0x56, 0x8c, 0x3c,
    0xcd, 0x8a, 0x81, 0x3d, 0xe6, 0xb2, 0x62, 0x3d, 0x8d, 0x81,
    0x52, 0xbd, 0xfc, 0xb5, 0x47, 0xbd, 0x5e, 0x56, 0x8c, 0x3c,
    0x11, 0xb9, 0x2c, 0xbb, 0x77, 0x7e, 0xed, 0xbc, 0x8d, 0x81,
    0x52, 0x3d, 0x55, 0xe7, 0xd7, 0xbc, 0xa2, 0x84, 0x37, 0xbd,
    0xda, 0x1e, 0xb2, 0x3d, 0x11, 0xb9, 0x2c, 0xbb, 0xf5, 0x6b,
    0xaf, 0x3d, 0xef, 0x21, 0x97, 0x3c, 0xef, 0x21, 0x17, 0xbd,
    0x80, 0xed, 0x21, 0x3d, 0x48, 0x53, 0x27, 0x3d, 0x48, 0x53,
    0x27, 0xbd, 0xef, 0x21, 0x97, 0xbd, 0x80, 0xed, 0x21, 0x3d,
    0x95, 0xf0, 0x06, 0x3e, 0x33, 0x50, 0x42, 0x3d, 0x11, 0xb9,
    0xac, 0x3d, 0x3a, 0x9a, 0xda, 0x3d, 0x11, 0xb9, 0xac, 0xbd,
    0x55, 0xe7, 0x57, 0x3c, 0xc4, 0x1b, 0x4d, 0x3d, 0xa2, 0x84,
    0xb7, 0x3d, 0x9c, 0x3a, 0x9f, 0x3d, 0x55, 0xe7, 0x57, 0xbd,
    0x48, 0x53, 0x27, 0x3d, 0xe6, 0xb2, 0xe2, 0x3d, 0x80, 0xed,
    0xa1, 0xbc, 0xef, 0x21, 0x17, 0xbc, 0x11, 0xb9, 0xac, 0xba,
    0xef, 0x21, 0x97, 0xbc, 0x80, 0xed, 0xa1, 0xbc, 0x55, 0xe7,
    0x57, 0xbc, 0x42, 0x09, 0x8f, 0xbd, 0x64, 0xa0, 0xa4, 0xbd,
    0x55, 0xe7, 0xd7, 0x3b, 0x95, 0xf0, 0x86, 0x3d, 0x42, 0x09,
    0x8f, 0x3d, 0xb7, 0x87, 0x1c, 0x3d, 0x26, 0xbc, 0x11, 0xbd,
    0x77, 0x7e, 0x6d, 0xbd, 0x80, 0xed, 0xa1, 0xbc, 0x9c, 0x3a,
    0x9f, 0xbd, 0x11, 0xb9, 0xac, 0xbd, 0x11, 0xb9, 0x2c, 0xbd,
    0x55, 0xe7, 0x57, 0xbd, 0x5e, 0x56, 0x0c, 0x3d, 0x77, 0x7e,
    0x6d, 0xbc, 0xe6, 0xb2, 0xe2, 0x3c, 0x40, 0xe4, 0x72, 0xbd,
    0x33, 0x50, 0x42, 0x3d, 0xaf, 0x18, 0x68, 0xbd, 0x95, 0xf0,
    0x06, 0x3d, 0xa8, 0xce, 0xcf, 0xbd, 0xb1, 0x3d, 0x04, 0xbe,
    0x55, 0xe7, 0x57, 0xbc, 0x11, 0xb9, 0xac, 0x3c, 0x64, 0xa0,
    0xa4, 0x3d, 0x55, 0xe7, 0xd7, 0xbb, 0x95, 0xf0, 0x86, 0xbd,
    0xa2, 0x84, 0xb7, 0xbd, 0x55, 0xe7, 0xd7, 0x3b, 0x33, 0x50,
    0xc2, 0xbd, 0x55, 0xe7, 0xd7, 0x3c, 0x5e, 0x56, 0x0c, 0xbd,
    0xa2, 0x84, 0xb7, 0x3d, 0xcd, 0x8a, 0x01, 0x3d, 0xfc, 0xb5,
    0xc7, 0x3d, 0xe6, 0xb2, 0xe2, 0x3d, 0x4f, 0x9d, 0xbf, 0xbd,
    0xd1, 0xaf, 0x7d, 0xbd, 0x33, 0x50, 0xc2, 0x3c, 0x11, 0xb9,
    0xac, 0xbb, 0x08, 0x4a, 0x78, 0x3d, 0x33, 0x50, 0xc2, 0xbc,
    0x2d, 0x06, 0xaa, 0x3d, 0xe6, 0xb2, 0xe2, 0x3d, 0x98, 0x15,
    0x13, 0x3e, 0xcd, 0x8a, 0x81, 0x3b, 0x8d, 0x81, 0x52, 0xbd,
    0x5c, 0x31, 0xf0, 0xbd, 0xcd, 0x8a, 0x01, 0x3d, 0x11, 0xb9,
    0x2c, 0x3b, 0xaf, 0x18, 0x68, 0x3d, 0x3a, 0x9a, 0xda, 0xbd,
    0xd1, 0xaf, 0x7d, 0xbd, 0x5e, 0x56, 0x8c, 0x3d, 0x1e, 0x4d,
    0x5d, 0x3d, 0x77, 0x7e, 0x6d, 0xbc, 0xb7, 0x87, 0x1c, 0xbd,
    0x5e, 0x56, 0x8c, 0xbd, 0x33, 0x50, 0x42, 0x3d, 0xef, 0x21,
    0x17, 0xbd, 0x55, 0xe7, 0xd7, 0x3b, 0x55, 0xe7, 0x57, 0xbd,
    0x9c, 0x3a, 0x9f, 0xbd, 0x5e, 0x56, 0x8c, 0x3c, 0x11, 0xb9,
    0x2c, 0xbb, 0xcd, 0x8a, 0x81, 0x3b, 0x26, 0xbc, 0x91, 0xbd,
    0xb7, 0x87, 0x9c, 0xbd, 0xb7, 0x87, 0x1c, 0x3d, 0x33, 0x50,
    0x42, 0xbd, 0xef, 0x21, 0x17, 0xbd, 0xb7, 0x87, 0x9c, 0xbd,
    0xb1, 0x3d, 0x84, 0xbd, 0x00, 0x00, 0x00, 0x00, 0xcd, 0x8a,
    0x01, 0x3c, 0xc4, 0x1b, 0x4d, 0x3d, 0xd1, 0xaf, 0x7d, 0xbd,
    0x7d, 0xc8, 0x15, 0xbe, 0x55, 0xe7, 0xd7, 0x3c, 0xfc, 0xb5,
    0x47, 0xbd, 0x95, 0xf0, 0x06, 0x3d, 0x26, 0xbc, 0x91, 0xbd,
    0x11, 0xb9, 0xac, 0xbb, 0x7a, 0xa3, 0x89, 0x3d, 0x33, 0x50,
    0xc2, 0x3c, 0xaf, 0x18, 0x68, 0x3d, 0x1e, 0x4d, 0xdd, 0xbd,
    0x26, 0xbc, 0x11, 0xbe, 0x48, 0x53, 0xa7, 0x3d, 0xc4, 0x1b,
    0xcd, 0x3c, 0xef, 0x21, 0x97, 0xbc, 0xcd, 0x8a, 0x01, 0x3c,
    0xcd, 0x8a, 0x81, 0xbc, 0x9f, 0x5f, 0x2b, 0x3e, 0x23, 0x97,
    0x05, 0x3e, 0x6b, 0xea, 0x3c, 0x3d, 0x55, 0xe7, 0xd7, 0xbd,
    0xc8, 0x4a, 0xa0, 0x3d, 0x3d, 0xb1, 0xbe, 0xbd, 0xad, 0xac,
    0x6d, 0xbd, 0xb6, 0x09, 0xd2, 0xbc, 0x45, 0x95, 0xa8, 0x3d,
    0xb2, 0x17, 0x5d, 0x3c, 0xc8, 0x4a, 0x20, 0xbd, 0xbe, 0xed,
    0xbb, 0xbc, 0xd2, 0xa7, 0x04, 0xbc, 0xc2, 0xdf, 0x30, 0x3c,
    0xa9, 0xba, 0x78, 0xbd, 0x4b, 0x00, 0x98, 0xbd, 0x2a, 0xf7,
    0xf5, 0xbd, 0xc2, 0xdf, 0xb0, 0x3a, 0xba, 0xfb, 0x46, 0x3c,
    0xd2, 0xa7, 0x04, 0xbe, 0xc6, 0xd1, 0x25, 0xbd, 0xa9, 0xba,
    0x78, 0xbd, 0x3d, 0xb1, 0xbe, 0xbd, 0xb6, 0x09, 0xd2, 0xbd,
    0xb4, 0x90, 0x57, 0x3d, 0x30, 0x62, 0xe5, 0xbd, 0x4d, 0x79,
    0x92, 0xbd, 0xc2, 0xdf, 0xb0, 0xbd, 0x4f, 0xf2, 0x8c, 0x3d,
    0xaf, 0x25, 0xe8, 0xbd, 0xc8, 0x4a, 0xa0, 0xbd, 0x47, 0x0e,
    0xa3, 0xbd, 0xb6, 0x09, 0xd2, 0xbc, 0x4f, 0xf2, 0x8c, 0xbd,
    0xab, 0x33, 0x73, 0x3c, 0xbe, 0xed, 0xbb, 0x3c, 0xb2, 0x17,
    0xdd, 0xbb, 0xba, 0xfb, 0x46, 0xbc, 0xc8, 0x4a, 0x20, 0x3d,
    0x00, 0x00, 0x00, 0x00, 0xd2, 0xa7, 0x04, 0xbd, 0x2e, 0xe9,
    0xea, 0xbd, 0xc6, 0xd1, 0x25, 0x3d, 0xc2, 0xdf, 0x30, 0x3c,
    0xc6, 0xd1, 0xa5, 0xbc, 0xb6, 0x09, 0x52, 0x3d, 0xd2, 0xa7,
    0x84, 0xbc, 0xaf, 0x25, 0xe8, 0xbc, 0xc6, 0xd1, 0xa5, 0x3c,
    0x41, 0xa3, 0xb3, 0xbd, 0xb6, 0x09, 0x52, 0xbd, 0x43, 0x1c,
    0xae, 0xbd, 0xa9, 0xba, 0x78, 0x3d, 0xbe, 0xed, 0x3b, 0xbd,
    0xd2, 0xa7, 0x84, 0x3d, 0xc2, 0xdf, 0xb0, 0x3a, 0xa7, 0x41,
    0xfe, 0xbc, 0xbe, 0xed, 0xbb, 0x3c, 0xca, 0xc3, 0x9a, 0x3d,
    0xb6, 0x09, 0xd2, 0xbc, 0xba, 0xfb, 0xc6, 0xbc, 0xc6, 0xd1,
    0xa5, 0xbc, 0xad, 0xac, 0x6d, 0xbd, 0xba, 0xfb, 0xc6, 0x3c,
    0xb2, 0x17, 0x5d, 0xbc, 0xa7, 0x41, 0x7e, 0xbd, 0xc0, 0x66,
    0xb6, 0xbd, 0x52, 0xe4, 0x81, 0xbd, 0xd0, 0x2e, 0x8a, 0x3d,
    0xc2, 0xdf, 0x30, 0x3b, 0xb8, 0x82, 0x4c, 0xbd, 0x41, 0xa3,
    0xb3, 0xbd, 0xb8, 0x82, 0x4c, 0xbd, 0x51, 0x6b, 0x87, 0xbd,
    0xca, 0xc3, 0x9a, 0xbd, 0xc6, 0xd1, 0xa5, 0x3c, 0xd2, 0xa7,
    0x84, 0xbd, 0xab, 0x33, 0xf3, 0x3c, 0xce, 0xb5, 0x8f, 0xbd,
    0xa7, 0x41, 0xfe, 0x3c, 0xc6, 0xd1, 0x25, 0xbd, 0xd2, 0xa7,
    0x84, 0xbc, 0xad, 0xac, 0x6d, 0xbd, 0xd0, 0x2e, 0x0a, 0xbd,
    0xc2, 0xdf, 0xb0, 0xbb, 0xd2, 0xa7, 0x84, 0x3d, 0xc6, 0xd1,
    0x25, 0xbd, 0xce, 0xb5, 0x8f, 0xbc, 0xb4, 0x90, 0x57, 0x3d,
    0xc6, 0xd1, 0x25, 0x3d, 0x4d, 0x79, 0x92, 0x3d, 0xa9, 0xba,
    0xf8, 0xbd, 0xca, 0xc3, 0x1a, 0xbd, 0xd2, 0xa7, 0x04, 0xbd,
    0xab, 0x33, 0xf3, 0xbc, 0x8d, 0x17, 0x11, 0x3e, 0xa7, 0x41,
    0xfe, 0x3c, 0xd2, 0xa7, 0x84, 0x3b, 0xbc, 0x74, 0xc1, 0x3d,
    0x00, 0x00, 0x00, 0x00, 0xc2, 0xdf, 0xb0, 0x3c, 0xb2, 0x17,
    0xdd, 0x3b, 0xad, 0xac, 0xed, 0x3d, 0xb8, 0x82, 0x4c, 0x3d,
    0xc2, 0xdf, 0x30, 0x3c, 0xba, 0xfb, 0x46, 0x3d, 0xaf, 0x25,
    0xe8, 0x3c, 0xca, 0xc3, 0x1a, 0xbc, 0xb2, 0x17, 0x5d, 0x3d,
    0xb4, 0x90, 0x57, 0xbd, 0xb8, 0x82, 0x4c, 0xbd, 0xca, 0xc3,
    0x1a, 0x3d, 0xd0, 0x2e, 0x0a, 0xbd, 0xa9, 0xba, 0x78, 0x3d,
    0x4f, 0xf2, 0x8c, 0x3d, 0xca, 0xc3, 0x9a, 0x3c, 0xb2, 0x17,
    0xdd, 0x3c, 0xcc, 0x3c, 0x15, 0xbd, 0xcc, 0x3c, 0x95, 0x3d,
    0xbe, 0xed, 0xbb, 0x3d, 0xd2, 0xa7, 0x84, 0x3c, 0xb1, 0x9e,
    0x62, 0x3d, 0xd2, 0xa7, 0x84, 0x3c, 0xc2, 0xdf, 0x30, 0xbd,
    0xc2, 0xdf, 0x30, 0xbd, 0xb6, 0x09, 0x52, 0xbd, 0xbe, 0xed,
    0xbb, 0x3c, 0xca, 0xc3, 0x9a, 0x3c, 0xce, 0xb5, 0x8f, 0xbd,
    0xc2, 0xdf, 0xb0, 0xbc, 0xd2, 0xa7, 0x84, 0xbb, 0xc6, 0xd1,
    0xa5, 0x3c, 0xc8, 0x4a, 0x20, 0x3d, 0xc2, 0xdf, 0xb0, 0xbc,
    0xd2, 0xa7, 0x04, 0x3c, 0x91, 0x09, 0x06, 0x3e, 0xd0, 0x2e,
    0x0a, 0xbd, 0xc6, 0xd1, 0xa5, 0x3c, 0xb6, 0x09, 0xd2, 0xbc,
    0x0c, 0xdb, 0x13, 0x3e, 0xb2, 0x17, 0x5d, 0x3d, 0xab, 0x33,
    0x73, 0x3d, 0xc2, 0xdf, 0xb0, 0xbb, 0xab, 0x33, 0xf3, 0xbc,
    0xc6, 0xd1, 0xa5, 0xbc, 0xc0, 0x66, 0x36, 0x3d, 0xc2, 0xdf,
    0xb0, 0xbc, 0xd0, 0x2e, 0x8a, 0x3d, 0xb6, 0x09, 0xd2, 0x3c,
    0xc4, 0x58, 0x2b, 0x3d, 0xd0, 0x2e, 0x0a, 0x3e, 0xab, 0x33,
    0xf3, 0x3c, 0xbe, 0xed, 0xbb, 0x3c, 0xb4, 0x90, 0x57, 0xbd,
    0xc0, 0x66, 0x36, 0x3d, 0xb2, 0x17, 0xdd, 0xbb, 0xa9, 0xba,
    0x78, 0xbd, 0xbe, 0xed, 0x3b, 0x3d, 0xd2, 0xa7, 0x04, 0xbd,
    0xc2, 0xdf, 0xb0, 0x3d, 0xba, 0xfb, 0xc6, 0x3d, 0x39, 0xbf,
    0xc9, 0x3d, 0xab, 0x33, 0xf3, 0x3c, 0xce, 0xb5, 0x0f, 0xbd,
    0xab, 0x33, 0x73, 0x3d, 0xc2, 0xdf, 0x30, 0x3d, 0xb2, 0x17,
    0x5d, 0x3c, 0xc0, 0x66, 0xb6, 0x3d, 0x45, 0x95, 0xa8, 0xbd,
    0xd2, 0xa7, 0x04, 0x3d, 0xbc, 0x74, 0xc1, 0x3d, 0xd2, 0xa7,
    0x04, 0xbd, 0xd0, 0x2e, 0x8a, 0xbd, 0xb6, 0x09, 0x52, 0xbd,
    0xaf, 0x25, 0xe8, 0x3c, 0xc2, 0xdf, 0x30, 0xbd, 0xbc, 0x74,
    0x41, 0xbd, 0xb6, 0x09, 0xd2, 0x3d, 0xc2, 0xdf, 0xb0, 0x3a,
    0xc8, 0x4a, 0xa0, 0x3d, 0xce, 0xb5, 0x8f, 0x3d, 0xa7, 0x41,
    0xfe, 0x3c, 0xc6, 0xd1, 0x25, 0x3d, 0x49, 0x87, 0x9d, 0xbd,
    0xab, 0x33, 0x73, 0xbd, 0xcc, 0x3c, 0x15, 0x3e, 0xb1, 0x9e,
    0x62, 0x3d, 0xba, 0xfb, 0x46, 0x3d, 0xc0, 0x66, 0xb6, 0xbd,
    0xcc, 0x3c, 0x95, 0x3d, 0xa7, 0x41, 0xfe, 0x3d, 0x4b, 0x00,
    0x98, 0x3d, 0xce, 0xb5, 0x0f, 0xbd, 0xc2, 0xdf, 0xb0, 0xbb,
    0xc8, 0x4a, 0xa0, 0xbd, 0xaf, 0x25, 0xe8, 0x3d, 0x52, 0xe4,
    0x81, 0x3d, 0x32, 0xdb, 0xdf, 0x3d, 0xd2, 0xa7, 0x84, 0x3b,
    0x41, 0xa3, 0xb3, 0x3d, 0x06, 0x70, 0x24, 0x3e, 0x45, 0x95,
    0x28, 0x3e, 0x93, 0x82, 0x00, 0x3e, 0xc4, 0x58, 0x2b, 0xbd,
    0xce, 0xb5, 0x8f, 0xbc, 0xad, 0xac, 0x6d, 0x3d, 0xc2, 0xdf,
    0xb0, 0xbb, 0xaf, 0x25, 0xe8, 0xbc, 0xc6, 0xd1, 0xa5, 0x3d,
    0xd2, 0xa7, 0x04, 0xbc, 0xd0, 0x2e, 0x0a, 0xbd, 0xaf, 0x25,
    0x68, 0x3d, 0xc2, 0xdf, 0xb0, 0xba, 0xbc, 0x74, 0xc1, 0xbd,
    0x4f, 0xf2, 0x8c, 0xbd, 0xc2, 0xdf, 0xb0, 0x3a, 0xa7, 0x41,
    0xfe, 0xbc, 0x49, 0x87, 0x9d, 0x3d, 0x35, 0xcd, 0xd4, 0xbd,
    0x52, 0xe4, 0x81, 0xbd, 0xca, 0xc3, 0x1a, 0x3d, 0xb4, 0x90,
    0x57, 0xbd, 0xb2, 0x17, 0xdd, 0x3b, 0x3b, 0x38, 0xc4, 0xbd,
    0x3f, 0x2a, 0xb9, 0xbd, 0xbc, 0x74, 0xc1, 0x3d, 0xab, 0x33,
    0xf3, 0x3c, 0xce, 0xb5, 0x8f, 0xbd, 0xab, 0x33, 0x73, 0xbd,
    0xbe, 0xed, 0xbb, 0xbc, 0xd0, 0x2e, 0x8a, 0x3d, 0xcc, 0x3c,
    0x15, 0x3d, 0xb6, 0x09, 0xd2, 0x3c, 0xbe, 0xed, 0x3b, 0xbd,
    0x4f, 0xf2, 0x8c, 0xbd, 0x4b, 0x00, 0x98, 0x3d, 0xca, 0xc3,
    0x1a, 0x3d, 0xaf, 0x25, 0xe8, 0x3c, 0xab, 0x33, 0xf3, 0x3c,
    0xa7, 0x41, 0xfe, 0xbc, 0xb4, 0x90, 0x57, 0x3d, 0xca, 0xc3,
    0x9a, 0x3d, 0x30, 0x62, 0xe5, 0x3d, 0x8b, 0x9e, 0x16, 0xbe,
    0xba, 0xfb, 0xc6, 0xbc, 0x02, 0x7e, 0x2f, 0x3e, 0x47, 0x0e,
    0xa3, 0x3d, 0xbc, 0x74, 0xc1, 0x3d, 0xc6, 0xd1, 0x25, 0xbd,
    0xaf, 0x25, 0x68, 0x3d, 0x35, 0xcd, 0xd4, 0x3d, 0xcc, 0x3c,
    0x15, 0x3d, 0xca, 0xc3, 0x9a, 0xbc, 0xb6, 0x09, 0x52, 0xbd,
    0xfa, 0xf7, 0x66, 0xbd, 0xec, 0x73, 0x3b, 0xbc, 0x8f, 0x30,
    0x4c, 0xbd, 0xc7, 0x25, 0xc2, 0x3c, 0x16, 0xe5, 0x05, 0x3c,
    0x11, 0xc2, 0x34, 0x3d, 0xc2, 0x02, 0xf1, 0xbb, 0xec, 0x73,
    0x3b, 0xbc, 0x81, 0xac, 0x20, 0xbd, 0x57, 0x3b, 0xd6, 0xbb,
    0xc2, 0x02, 0xf1, 0x3b, 0x68, 0x43, 0x8e, 0xbd, 0xec, 0x73,
    0xbb, 0x3b, 0xff, 0x1a, 0x38, 0x3d, 0x37, 0x10, 0xae, 0x3c,
    0xa2, 0xd7, 0x48, 0xbc, 0x37, 0x10, 0x2e, 0x3d, 0xfa, 0xf7,
    0x66, 0xbd, 0x5c, 0x5e, 0x27, 0x3d, 0x57, 0x3b, 0x56, 0xba,
    0x0c, 0x9f, 0x63, 0xbd, 0xff, 0x1a, 0x38, 0xbd, 0x32, 0xed,
    0x5c, 0x3d, 0x94, 0x53, 0x1d, 0x3d, 0xec, 0x73, 0x3b, 0xbc,
    0x7c, 0x89, 0x4f, 0xbd, 0xa2, 0xd7, 0x48, 0x3c, 0xb4, 0x7e,
    0x45, 0xbd, 0x6f, 0x05, 0x24, 0x3d, 0xcc, 0x48, 0x93, 0x3c,
    0x37, 0x10, 0xae, 0x3c, 0xf1, 0x96, 0x8c, 0x3c, 0xfa, 0xf7,
    0x66, 0xbd, 0x75, 0xc7, 0xb9, 0xbd, 0x57, 0x3b, 0xd6, 0xba,
    0xd5, 0xa9, 0x6d, 0x3d, 0x0c, 0x9f, 0xe3, 0xbc, 0x11, 0xc2,
    0xb4, 0xbc, 0xd5, 0xa9, 0x6d, 0xbd, 0x81, 0xac, 0xa0, 0xbc,
    0xff, 0x1a, 0x38, 0xbd, 0xff, 0x1a, 0x38, 0x3d, 0x77, 0x66,
    0x7e, 0xbd, 0xb2, 0xdf, 0x80, 0xbd, 0xa2, 0xd7, 0x48, 0xbc,
    0x1d, 0xa7, 0x9b, 0xbd, 0xc7, 0x25, 0x42, 0xbd, 0xb2, 0xdf,
    0x80, 0x3d, 0xc7, 0x25, 0x42, 0x3d, 0x94, 0x53, 0x1d, 0x3d,
    0xcc, 0x48, 0x93, 0xbc, 0xcc, 0x48, 0x13, 0xbd, 0x94, 0x53,
    0x1d, 0xbd, 0x16, 0xe5, 0x85, 0xbd, 0xec, 0x73, 0x3b, 0x3d,
    0x29, 0x8c, 0x82, 0x3d, 0x5c, 0x5e, 0x27, 0x3d, 0x77, 0x66,
    0x7e, 0xbc, 0x04, 0x3e, 0x09, 0xbd, 0x16, 0xe5, 0x85, 0xbc,
    0x6f, 0x05, 0x24, 0x3d, 0x0c, 0x9f, 0x63, 0xbd, 0x57, 0x3b,
    0xd6, 0xba, 0xc7, 0x25, 0x42, 0xbd, 0xcc, 0x48, 0x13, 0xbd,
    0xc2, 0x02, 0x71, 0xbd, 0x11, 0xc2, 0x34, 0x3d, 0x8a, 0x0d,
    0x7b, 0x3d, 0x29, 0x8c, 0x82, 0xbd, 0x55, 0x9c, 0x91, 0xbd,
    0x1d, 0xa7, 0x9b, 0xbd, 0x55, 0x9c, 0x91, 0xbd, 0x9d, 0xb4,
    0x77, 0x3d, 0x57, 0x3b, 0xd6, 0x3a, 0xb9, 0xa1, 0x16, 0x3d,
    0x24, 0x69, 0x31, 0x3d, 0xec, 0x73, 0x3b, 0x3c, 0x81, 0xac,
    0xa0, 0xbb, 0x81, 0xac, 0xa0, 0x3c, 0x55, 0x9c, 0x91, 0xbd,
    0x32, 0xed, 0xdc, 0xbc, 0xff, 0x1a, 0x38, 0x3d, 0xa2, 0xd7,
    0x48, 0x3c, 0xe7, 0x50, 0x6a, 0x3d, 0x6a, 0xe2, 0x52, 0x3d,
    0x6f, 0x05, 0x24, 0x3d, 0xa7, 0xfa, 0x19, 0x3d, 0x57, 0x3b,
    0x56, 0xbb, 0x9d, 0xb4, 0xf7, 0xbc, 0xb4, 0x7e, 0x45, 0xbd,
    0x55, 0x9c, 0x91, 0xbd, 0x32, 0xed, 0x5c, 0xbd, 0x0c, 0x9f,
    0x63, 0x3c, 0xd5, 0xa9, 0x6d, 0x3d, 0xc2, 0x02, 0xf1, 0x3b,
    0x0b, 0x00, 0x9f, 0xbd, 0x5c, 0x5e, 0xa7, 0xbc, 0x11, 0xc2,
    0x34, 0x3d, 0x57, 0x3b, 0xd6, 0x3b, 0xec, 0x73, 0xbb, 0x3c,
    0x37, 0x10, 0xae, 0xbd, 0x8a, 0x0d, 0x7b, 0x3d, 0xc7, 0x25,
    0x42, 0xbd, 0x16, 0xe5, 0x85, 0xbc, 0xe7, 0x50, 0x6a, 0x3d,
    0x32, 0xed, 0x5c, 0xbd, 0x81, 0xac, 0xa0, 0xbd, 0x81, 0xac,
    0x20, 0xbb, 0xd9, 0xcc, 0x3e, 0x3d, 0xa2, 0xd7, 0xc8, 0x3c,
    0x04, 0x3e, 0x09, 0x3d, 0xc2, 0x02, 0xf1, 0x3b, 0xd5, 0xa9,
    0x6d, 0x3d, 0xff, 0x1a, 0xb8, 0xbd, 0xb4, 0x7e, 0x45, 0x3d,
    0xf1, 0x96, 0x0c, 0xbd, 0xd5, 0xa9, 0x6d, 0x3d, 0xa7, 0xfa,
    0x19, 0x3d, 0xe7, 0x50, 0x6a, 0xbd, 0x57, 0x3b, 0xd6, 0x3c,
    0xf1, 0x96, 0x8c, 0x3c, 0x7a, 0xea, 0x8a, 0xbd, 0x8f, 0x30,
    0x4c, 0x3d, 0x49, 0xb7, 0x2a, 0xbd, 0xc0, 0x63, 0xac, 0xbd,
    0xec, 0x73, 0x3b, 0x3c, 0xff, 0x1a, 0x38, 0xbd, 0xfa, 0xf7,
    0x66, 0x3d, 0xd9, 0xcc, 0x3e, 0xbd, 0x24, 0x69, 0x31, 0x3d,
    0x81, 0xac, 0x20, 0xbb, 0x68, 0x43, 0x8e, 0xbd, 0xff, 0x1a,
    0x38, 0xbd, 0xf1, 0x96, 0x8c, 0xbc, 0x37, 0x10, 0x2e, 0xbd,
    0xf1, 0x96, 0x0c, 0xbd, 0x32, 0xed, 0xdc, 0xbc, 0x5c, 0x5e,
    0xa7, 0xbd, 0x44, 0x94, 0x59, 0x3d, 0xa7, 0xfa, 0x99, 0xbc,
    0x7c, 0x89, 0xcf, 0xbc, 0x32, 0xed, 0x5c, 0xbd, 0xe7, 0x50,
    0xea, 0xbc, 0x16, 0xe5, 0x85, 0xbc, 0x32, 0xed, 0x5c, 0xbd,
    0xe7, 0x50, 0xea, 0xbc, 0xa0, 0x38, 0x84, 0xbd, 0xcc, 0x48,
    0x13, 0x3c, 0x2b, 0x2b, 0xc7, 0xbd, 0x77, 0x66, 0x7e, 0xbd,
    0x6f, 0x05, 0xa4, 0xbd, 0x57, 0x3b, 0x56, 0xbb, 0xcc, 0x48,
    0x93, 0xbc, 0x94, 0x53, 0x1d, 0xbd, 0x5c, 0x5e, 0xa7, 0xbc,
    0x7c, 0x89, 0x4f, 0xbd, 0x8a, 0x0d, 0x7b, 0xbd, 0x8d, 0x91,
    0x87, 0x3d, 0xa0, 0x38, 0x84, 0xbd, 0x57, 0x3b, 0x56, 0xbc,
    0xcc, 0x48, 0x93, 0xbc, 0xa2, 0xd7, 0xc8, 0xbc, 0x29, 0x8c,
    0x82, 0x3d, 0xad, 0xbc, 0xaf, 0xbd, 0xfa, 0xf7, 0x66, 0x3d,
    0x29, 0x8c, 0x82, 0xbd, 0x29, 0x8c, 0x82, 0xbd, 0x1d, 0xa7,
    0x9b, 0xbd, 0xa2, 0xd7, 0x48, 0x3d, 0xa2, 0xd7, 0x48, 0x3d,
    0x37, 0x10, 0x2e, 0xbc, 0x77, 0x66, 0x7e, 0xbc, 0x0c, 0x9f,
    0x63, 0xbd, 0x6a, 0xe2, 0x52, 0x3d, 0xa7, 0xfa, 0x99, 0x3c,
    0x0b, 0x00, 0x9f, 0xbd, 0x7c, 0x89, 0x4f, 0x3d, 0x6a, 0xe2,
    0x52, 0xbd, 0x24, 0x69, 0x31, 0xbd, 0x57, 0x3b, 0x56, 0x3c,
    0x81, 0xac, 0x20, 0xbb, 0x57, 0x3b, 0x56, 0x3d, 0xa0, 0x38,
    0x84, 0xbd, 0x68, 0x43, 0x8e, 0xbd, 0xe7, 0x50, 0x6a, 0x3d,
    0x57, 0x3b, 0xd6, 0x3b, 0x77, 0x66, 0x7e, 0xbd, 0xaf, 0x5b,
    0x74, 0x3d, 0x81, 0xac, 0xa0, 0xbc, 0x8d, 0x91, 0x87, 0xbd,
    0xec, 0x73, 0x3b, 0xbd, 0x6a, 0xe2, 0x52, 0x3d, 0x0c, 0x9f,
    0x63, 0xbc, 0x8a, 0x0d, 0x7b, 0xbd, 0xc7, 0x25, 0xc2, 0xbd,
    0x7c, 0x89, 0x4f, 0xbd, 0xd5, 0xa9, 0x6d, 0xbd, 0x5c, 0x5e,
    0xa7, 0x3c, 0x7c, 0x89, 0xcf, 0x3c, 0x11, 0xc2, 0x34, 0xbd,
    0xcc, 0x48, 0x13, 0xbd, 0xa2, 0xd7, 0x48, 0xbc, 0x81, 0xac,
    0xa0, 0xbd, 0x00, 0x00, 0x00, 0x00, 0xe7, 0x50, 0x6a, 0xbd,
    0x44, 0x94, 0x59, 0x3d, 0x32, 0xed, 0xdc, 0xbc, 0xb2, 0xdf,
    0x80, 0x3d, 0x37, 0x10, 0xae, 0xbd, 0x16, 0xe5, 0x85, 0x3b,
    0x16, 0xe5, 0x85, 0x3b, 0x44, 0x94, 0x59, 0x3d, 0x16, 0xe5,
    0x85, 0xbb, 0x04, 0x3e, 0x09, 0x3d, 0xd9, 0xcc, 0x3e, 0xbd,
    0x49, 0xb7, 0x2a, 0xbd, 0xfa, 0xf7, 0x66, 0xbd, 0x81, 0xac,
    0xa0, 0xbc, 0x57, 0x3b, 0xd6, 0x3b, 0x0b, 0x00, 0x9f, 0xbd,
    0xa2, 0xd7, 0x48, 0x3d, 0x57, 0x3b, 0xd6, 0xbc, 0x0c, 0x9f,
    0x63, 0xbd, 0xe0, 0x8e, 0xd4, 0xbd, 0x94, 0x53, 0x1d, 0x3d,
    0xff, 0x1a, 0x38, 0x3d, 0xe5, 0xb1, 0xa5, 0xbd, 0xec, 0x73,
    0x3b, 0x3c, 0xfa, 0xf7, 0x66, 0xbd, 0xde, 0xef, 0x0f, 0xbd,
    0xcc, 0x48, 0x13, 0x3d, 0xc0, 0x63, 0xac, 0xbd, 0x24, 0x69,
    0x31, 0xbd, 0xff, 0x1a, 0xb8, 0xbd, 0xa2, 0xd7, 0x48, 0xbd,
    0x8a, 0x0d, 0x7b, 0x3d, 0x9d, 0xb4, 0xf7, 0x3c, 0x7c, 0x89,
    0x4f, 0x3d, 0x11, 0xc2, 0xb4, 0x3c, 0x7c, 0x89, 0xcf, 0x3c,
    0x9d, 0xb4, 0x77, 0xbd, 0x57, 0x3b, 0x56, 0x3b, 0x57, 0x3b,
    0xd6, 0x3a, 0x6f, 0x05, 0xa4, 0xbd, 0xc2, 0x02, 0x71, 0xbd,
    0xcc, 0x48, 0x13, 0xbc, 0x44, 0x94, 0x59, 0x3d, 0xa7, 0xfa,
    0x99, 0x3c, 0x29, 0x8c, 0x02, 0x3d, 0xde, 0xef, 0x0f, 0xbd,
    0x67, 0x98, 0x8d, 0xbd, 0xc4, 0xe0, 0x03, 0xbe, 0x28, 0x5f,
    0x90, 0x3c, 0x43, 0x52, 0x74, 0xbd, 0x34, 0xcb, 0x3c, 0xbd,
    0x31, 0xb0, 0x31, 0x3d, 0x37, 0xe6, 0xc7, 0xbc, 0x04, 0x19,
    0xf7, 0xbd, 0xb9, 0x73, 0x4d, 0x3d, 0x37, 0xe6, 0x47, 0x3d,
    0x37, 0xe6, 0x47, 0x3c, 0xa6, 0xd1, 0x8a, 0xbd, 0x70, 0xe9,
    0xae, 0x3d, 0x37, 0xe6, 0xc7, 0x3c, 0x25, 0x44, 0x85, 0x3b,
    0x28, 0x5f, 0x10, 0xbd, 0xe6, 0x0a, 0x88, 0xbd, 0x43, 0x52,
    0x74, 0xbc, 0x2e, 0x95, 0xa6, 0x3c, 0x6a, 0xb3, 0x98, 0x3d,
    0xac, 0x07, 0x21, 0xbd, 0x43, 0x52, 0xf4, 0xbc, 0x43, 0x52,
    0x74, 0x3c, 0x2e, 0x95, 0xa6, 0xbd, 0xc2, 0xc4, 0x6e, 0x3d,
    0x6d, 0xce, 0xa3, 0xbd, 0x25, 0x44, 0x85, 0xbc, 0xb9, 0x73,
    0x4d, 0xbd, 0x28, 0x5f, 0x90, 0xbc, 0xa9, 0xec, 0x15, 0x3d,
    0x28, 0x5f, 0x90, 0xbd, 0x31, 0xb0, 0x31, 0x3b, 0xbc, 0x8e,
    0x58, 0x3d, 0xb3, 0x3d, 0x37, 0xbd, 0x2e, 0x95, 0xa6, 0xbd,
    0x40, 0x37, 0xe9, 0xbc, 0x37, 0xe6, 0xc7, 0xbd, 0x64, 0x7d,
    0x82, 0xbd, 0x2e, 0x95, 0xa6, 0x3c, 0x6d, 0xce, 0xa3, 0x3d,
    0x37, 0xe6, 0xc7, 0xbd, 0xf2, 0x76, 0xb4, 0xbd, 0x37, 0xe6,
    0x47, 0xbd, 0x3a, 0x01, 0xd3, 0x3c, 0x2b, 0x7a, 0x9b, 0x3c,
    0x64, 0x7d, 0x82, 0x3d, 0xaf, 0x22, 0x2c, 0xbd, 0x2b, 0x7a,
    0x9b, 0xbd, 0x34, 0xcb, 0xbc, 0x3c, 0x0d, 0x6b, 0x22, 0x3e,
    0x2b, 0x7a, 0x1b, 0x3c, 0xb6, 0x58, 0xc2, 0xbd, 0x28, 0x5f,
    0x90, 0x3c, 0xa9, 0xec, 0x15, 0xbd, 0x37, 0xe6, 0x47, 0xbd,
    0x25, 0x44, 0x05, 0xbd, 0x2b, 0x7a, 0x9b, 0xbd, 0x34, 0xcb,
    0xbc, 0xbd, 0x2e, 0x95, 0x26, 0xbd, 0x28, 0x5f, 0x90, 0x3d,
    0xa9, 0xec, 0x15, 0x3d, 0xac, 0x07, 0xa1, 0xbd, 0x37, 0xe6,
    0x47, 0xbc, 0x2e, 0x95, 0xa6, 0xbc, 0x43, 0x52, 0x74, 0x3c,
    0x2b, 0x7a, 0x1b, 0x3c, 0x43, 0x52, 0x74, 0x3d, 0xb6, 0x58,
    0xc2, 0x3d, 0x31, 0xb0, 0xb1, 0x3a, 0xb6, 0x58, 0x42, 0xbd,
    0x67, 0x98, 0x8d, 0x3d, 0x43, 0x52, 0x74, 0x3d, 0xac, 0x07,
    0x21, 0xbd, 0x46, 0x6d, 0x7f, 0x3d, 0x2b, 0x7a, 0x9b, 0xbc,
    0x37, 0xe6, 0xc7, 0x3c, 0x31, 0xb0, 0x31, 0x3d, 0x31, 0xb0,
    0x31, 0xbc, 0xaf, 0x22, 0xac, 0xbd, 0x25, 0x44, 0x85, 0x3b,
    0xa9, 0xec, 0x15, 0x3d, 0x31, 0xb0, 0xb1, 0xbb, 0xa9, 0xec,
    0x15, 0xbd, 0x31, 0xb0, 0x31, 0x3b, 0xac, 0x07, 0x21, 0xbd,
    0x7c, 0x55, 0xdb, 0xbd, 0xbc, 0x8e, 0xd8, 0xbd, 0x46, 0x6d,
    0xff, 0xbc, 0xb6, 0x58, 0xc2, 0xbd, 0x3a, 0x01, 0x53, 0x3d,
    0x31, 0xb0, 0x31, 0xbc, 0x31, 0xb0, 0x31, 0x3b, 0x25, 0x44,
    0x85, 0xbd, 0xbf, 0xa9, 0x63, 0xbd, 0xa6, 0xd1, 0x8a, 0x3d,
    0xfb, 0xc7, 0xd5, 0x3d, 0x3d, 0x1c, 0x5e, 0x3c, 0x2b, 0x7a,
    0x1b, 0x3c, 0x73, 0x04, 0xba, 0xbd, 0x25, 0x44, 0x85, 0x3b,
    0xb9, 0x73, 0x4d, 0xbd, 0x31, 0xb0, 0xb1, 0x3b, 0x25, 0x44,
    0x05, 0xbc, 0x31, 0xb0, 0x31, 0x3b, 0x73, 0x04, 0xba, 0x3d,
    0x25, 0x44, 0x05, 0x3d, 0x31, 0xb0, 0x31, 0xbc, 0x64, 0x7d,
    0x82, 0xbd, 0x25, 0x44, 0x05, 0xbc, 0x37, 0xe6, 0xc7, 0xbc,
    0x3d, 0x1c, 0xde, 0xbb, 0xac, 0x07, 0xa1, 0x3d, 0x3d, 0x1c,
    0x5e, 0xbc, 0x31, 0xb0, 0x31, 0x3c, 0x25, 0x44, 0x85, 0xbb,
    0x25, 0x44, 0x05, 0xbd, 0x3d, 0x1c, 0xde, 0xbc, 0x40, 0x37,
    0xe9, 0x3c, 0x2e, 0x95, 0x26, 0x3d, 0x2b, 0x7a, 0x9b, 0x3d,
    0xe6, 0x0a, 0x88, 0x3d, 0x25, 0x44, 0x05, 0x3d, 0x2e, 0x95,
    0xa6, 0xbd, 0xa9, 0xec, 0x95, 0xbd, 0x64, 0x7d, 0x82, 0xbd,
    0x00, 0x00, 0x00, 0x00, 0xbf, 0xa9, 0x63, 0xbd, 0x2e, 0x95,
    0x26, 0xbd, 0x25, 0x44, 0x05, 0x3d, 0x31, 0xb0, 0xb1, 0xbc,
    0x31, 0xb0, 0x31, 0xbc, 0x34, 0xcb, 0xbc, 0x3c, 0x2e, 0x95,
    0xa6, 0xbc, 0x34, 0xcb, 0x3c, 0x3d, 0xb9, 0x73, 0x4d, 0xbd,
    0x40, 0x37, 0xe9, 0xbc, 0x31, 0xb0, 0x31, 0xbc, 0xfe, 0xe2,
    0xe0, 0x3d, 0xd1, 0x4c, 0x30, 0xbe, 0x70, 0xe9, 0xae, 0x3d,
    0x2b, 0x7a, 0x9b, 0x3c, 0xa6, 0xd1, 0x0a, 0xbd, 0xa6, 0xd1,
    0x0a, 0x3d, 0xac, 0x07, 0x21, 0x3d, 0x3d, 0x1c, 0x5e, 0xbc,
    0x25, 0x44, 0x85, 0x3b, 0x31, 0xb0, 0xb1, 0x3a, 0xb3, 0x3d,
    0x37, 0x3d, 0x80, 0x70, 0xe6, 0xbd, 0x2e, 0x95, 0x26, 0xbd,
    0x2e, 0x95, 0xa6, 0x3c, 0x79, 0x3a, 0xd0, 0xbd, 0x31, 0xb0,
    0x31, 0xbd, 0x28, 0x5f, 0x90, 0xbd, 0xb9, 0x73, 0x4d, 0xbd,
    0x3a, 0x01, 0xd3, 0x3c, 0xc2, 0xc4, 0x6e, 0xbd, 0xc5, 0xdf,
    0x79, 0x3d, 0x2e, 0x95, 0xa6, 0xbc, 0x31, 0xb0, 0x31, 0xbb,
    0x3a, 0x01, 0xd3, 0xbc, 0x37, 0xe6, 0x47, 0x3d, 0xb9, 0x73,
    0x4d, 0xbd, 0x25, 0x44, 0x85, 0xbd, 0x31, 0xb0, 0xb1, 0xbc,
    0x28, 0x5f, 0x90, 0x3c, 0x28, 0x5f, 0x90, 0xbd, 0x6d, 0xce,
    0xa3, 0xbd, 0x2e, 0x95, 0xa6, 0x3c, 0x28, 0x5f, 0x10, 0xbd,
    0x43, 0x52, 0xf4, 0x3d, 0x70, 0xe9, 0xae, 0xbd, 0xf2, 0x76,
    0xb4, 0xbd, 0x28, 0x5f, 0x10, 0xbd, 0xe9, 0x25, 0x93, 0x3d,
    0x31, 0xb0, 0x31, 0xbb, 0x88, 0xc2, 0x11, 0xbe, 0x2e, 0x95,
    0x26, 0x3d, 0x34, 0xcb, 0xbc, 0xbc, 0xb3, 0x3d, 0x37, 0x3d,
    0x83, 0x8b, 0xf1, 0x3d, 0xc5, 0xdf, 0x79, 0xbd, 0x43, 0x52,
    0xf4, 0xbd, 0x3d, 0x1c, 0x5e, 0xbd, 0x46, 0x6d, 0xff, 0xbc,
    0x3a, 0x01, 0xd3, 0xbc, 0x85, 0xa7, 0x06, 0xbe, 0xa9, 0xec,
    0x15, 0x3d, 0x3d, 0x1c, 0xde, 0xbd, 0x31, 0xb0, 0x31, 0x3d,
    0x2b, 0x7a, 0x1b, 0xbc, 0x2b, 0x7a, 0x9b, 0xbd, 0x2b, 0x7a,
    0x9b, 0x3c, 0x43, 0x52, 0xf4, 0x3c, 0x3d, 0x1c, 0xde, 0xbb,
    0x25, 0x44, 0x85, 0xbd, 0x43, 0x52, 0x74, 0xbc, 0xb3, 0x3d,
    0xb7, 0xbd, 0xac, 0x07, 0xa1, 0xbd, 0x28, 0x5f, 0x90, 0x3d,
    0xc2, 0xc4, 0x6e, 0x3d, 0x76, 0x1f, 0xc5, 0xbd, 0x40, 0x37,
    0xe9, 0x3c, 0xe6, 0x0a, 0x88, 0xbd, 0xc5, 0xdf, 0x79, 0xbd,
    0xc2, 0xc4, 0xee, 0xbd, 0x2b, 0x7a, 0x1b, 0xbc, 0x37, 0xe6,
    0x47, 0xbc, 0xa6, 0xd1, 0x0a, 0xbd, 0x2e, 0x95, 0xa6, 0x3d,
    0x25, 0x44, 0x85, 0xbc, 0x40, 0x37, 0x69, 0xbd, 0x79, 0x3a,
    0xd0, 0xbd, 0x73, 0x04, 0xba, 0xbd, 0x31, 0xb0, 0x31, 0x3b,
    0x88, 0xc2, 0x11, 0xbe, 0xb3, 0x3d, 0x37, 0xbd, 0x2b, 0x7a,
    0x1b, 0x3d, 0x7c, 0x55, 0xdb, 0xbd, 0xb9, 0x73, 0x4d, 0xbd,
    0xc2, 0xc4, 0x6e, 0x3d, 0xbc, 0x8e, 0xd8, 0xbd, 0x2b, 0x7a,
    0x1b, 0xbd, 0xac, 0x07, 0xa1, 0xbd, 0xa6, 0xd1, 0x0a, 0x3d,
    0x04, 0x19, 0xf7, 0xbd, 0x25, 0x44, 0x05, 0xbc, 0x2b, 0x7a,
    0x9b, 0xbd, 0x43, 0x52, 0xf4, 0xbd, 0xb9, 0x73, 0x4d, 0x3d,
    0x6d, 0xce, 0x23, 0x3e, 0xc7, 0xfb, 0x0e, 0xbe, 0xf2, 0x76,
    0xb4, 0xbd, 0x7c, 0x55, 0xdb, 0xbd, 0x3a, 0x01, 0x53, 0xbd,
    0x80, 0x70, 0xe6, 0xbd, 0x86, 0xa6, 0xfc, 0xbd, 0x25, 0x44,
    0x85, 0xbd, 0xe6, 0x0a, 0x88, 0xbd, 0xa6, 0xd1, 0x8a, 0x3d,
    0x34, 0xcb, 0xbc, 0x3d, 0x7c, 0x55, 0xdb, 0xbd, 0xa6, 0xd1,
    0x0a, 0xbe, 0x76, 0x1f, 0xc5, 0xbd, 0x34, 0xcb, 0x3c, 0xbd,
    0xef, 0x5b, 0x29, 0xbe, 0x40, 0x37, 0xe9, 0xbc, 0x28, 0x5f,
    0x10, 0xbe, 0x37, 0xe6, 0x47, 0xbd, 0x37, 0xe6, 0x47, 0xbd,
    0xb5, 0x1b, 0x61, 0xbd, 0x47, 0xa8, 0x32, 0xbd, 0xd3, 0x82,
    0x2b, 0x3d, 0xe7, 0x85, 0xc4, 0xbd, 0x03, 0x94, 0xa2, 0xbd,
    0x17, 0x97, 0xbb, 0xbd, 0x88, 0x63, 0x56, 0x3d, 0x7b, 0x6b,
    0x82, 0xbd, 0x00, 0x3b, 0x36, 0x3d, 0x8d, 0x15, 0xaf, 0xbd,
    0x7b, 0x6b, 0x82, 0xbd, 0xce, 0xd0, 0x52, 0x3d, 0x8d, 0x15,
    0x2f, 0xbd, 0x83, 0xb1, 0x7d, 0x3d, 0xd6, 0xdb, 0x97, 0xbd,
    0xa1, 0x18, 0xc8, 0xbb, 0xb5, 0x1b, 0x61, 0xbd, 0xd3, 0x82,
    0xab, 0x3c, 0x6f, 0xae, 0x64, 0x3a, 0xfc, 0x88, 0x5d, 0xbd,
    0xa1, 0x18, 0x48, 0xbc, 0xef, 0x90, 0x89, 0x3d, 0x1e, 0xa2,
    0x00, 0xbc, 0xfc, 0x88, 0x5d, 0xbd, 0x15, 0x3e, 0x4f, 0xbd,
    0x92, 0xc7, 0x07, 0x3d, 0xa9, 0x23, 0x8d, 0xbd, 0xd8, 0x34,
    0x04, 0xbd, 0xa1, 0x18, 0x48, 0xbd, 0x60, 0x5d, 0x24, 0xbd,
    0x49, 0x01, 0x9f, 0xbd, 0x2e, 0xf3, 0x40, 0x3d, 0xd8, 0x34,
    0x04, 0xbd, 0x74, 0x60, 0x3d, 0x3d, 0xfc, 0x88, 0x5d, 0xbd,
    0xd8, 0x34, 0x04, 0xbd, 0xec, 0x37, 0x9d, 0xbc, 0x76, 0xb9,
    0xa9, 0xbd, 0x33, 0xa5, 0x99, 0x3d, 0xd8, 0x34, 0x84, 0x3d,
    0x79, 0x12, 0x96, 0x3c, 0x60, 0x5d, 0x24, 0xbd, 0x79, 0x12,
    0x16, 0x3d, 0xa6, 0xca, 0x20, 0xbd, 0x92, 0xc7, 0x07, 0x3d,
